{
  "version": "1.0",
  "truncation": null,
  "padding": null,
  "added_tokens": [
    {
      "id": 0,
      "content": "<unk>",
      "single_word": false,
      "lstrip": false,
      "rstrip": false,
      "normalized": false,
      "special": true
    },
    {
      "id": 18000,
      "content": "<s>",
      "single_word": false,
      "lstrip": false,
      "rstrip": false,
      "normalized": false,
      "special": true
    },
    {
      "id": 18001,
      "content": "</s>",
      "single_word": false,
      "lstrip": false,
      "rstrip": false,
      "normalized": false,
      "special": true
    },
    {
      "id": 18002,
      "content": "<pad>",
      "single_word": false,
      "lstrip": false,
      "rstrip": false,
      "normalized": false,
      "special": true
    }
  ],
  "normalizer": {
    "type": "NFKC"
  },
  "pre_tokenizer": {
    "type": "Metaspace",
    "replacement": "▁",
    "add_prefix_space": true,
    "prepend_scheme": "always"
  },
  "post_processor": null,
  "decoder": {
    "type": "Metaspace",
    "replacement": "▁",
    "add_prefix_space": true,
    "prepend_scheme": "always"
  },
  "model": {
    "type": "BPE",
    "dropout": null,
    "unk_token": "<unk>",
    "continuing_subword_prefix": null,
    "end_of_word_suffix": null,
    "fuse_unk": false,
    "byte_fallback": false,
    "vocab": {
      "<unk>": 0,
      "!": 1,
      "#": 2,
      "$": 3,
      "%": 4,
      "&": 5,
      "'": 6,
      ")": 7,
      "*": 8,
      "+": 9,
      "-": 10,
      ".": 11,
      "/": 12,
      "0": 13,
      "1": 14,
      "2": 15,
      "3": 16,
      "4": 17,
      "5": 18,
      "6": 19,
      "7": 20,
      "8": 21,
      "9": 22,
      ":": 23,
      ";": 24,
      "<": 25,
      "=": 26,
      ">": 27,
      "?": 28,
      "A": 29,
      "B": 30,
      "C": 31,
      "D": 32,
      "E": 33,
      "F": 34,
      "G": 35,
      "H": 36,
      "I": 37,
      "J": 38,
      "K": 39,
      "L": 40,
      "M": 41,
      "N": 42,
      "O": 43,
      "P": 44,
      "Q": 45,
      "R": 46,
      "S": 47,
      "T": 48,
      "U": 49,
      "V": 50,
      "W": 51,
      "X": 52,
      "Y": 53,
      "Z": 54,
      "[": 55,
      "]": 56,
      "^": 57,
      "_": 58,
      "`": 59,
      "a": 60,
      "b": 61,
      "c": 62,
      "d": 63,
      "e": 64,
      "f": 65,
      "g": 66,
      "h": 67,
      "i": 68,
      "j": 69,
      "k": 70,
      "l": 71,
      "m": 72,
      "n": 73,
      "o": 74,
      "p": 75,
      "q": 76,
      "r": 77,
      "s": 78,
      "t": 79,
      "u": 80,
      "v": 81,
      "w": 82,
      "x": 83,
      "y": 84,
      "z": 85,
      "{": 86,
      "|": 87,
      "}": 88,
      "~": 89,
      "": 90,
      "": 91,
      "": 92,
      "": 93,
      "": 94,
      "": 95,
      "": 96,
      "": 97,
      "": 98,
      "": 99,
      "­": 100,
      "Ç": 101,
      "É": 102,
      "Ó": 103,
      "Ô": 104,
      "Ü": 105,
      "ß": 106,
      "á": 107,
      "â": 108,
      "ä": 109,
      "ç": 110,
      "é": 111,
      "í": 112,
      "ó": 113,
      "ú": 114,
      "ü": 115,
      "Č": 116,
      "č": 117,
      "ď": 118,
      "ę": 119,
      "Ľ": 120,
      "Ł": 121,
      "ł": 122,
      "ń": 123,
      "Ň": 124,
      "Ő": 125,
      "ŕ": 126,
      "š": 127,
      "Ť": 128,
      "ů": 129,
      "ű": 130,
      "ˇ": 131,
      "̨": 132,
      "▁": 133,
      "▁t": 134,
      "ou": 135,
      "he": 136,
      "▁a": 137,
      "in": 138,
      "▁w": 139,
      "re": 140,
      "▁I": 141,
      "▁s": 142,
      "ha": 143,
      "▁y": 144,
      "on": 145,
      "▁you": 146,
      "▁m": 147,
      "▁the": 148,
      "▁d": 149,
      "..": 150,
      "it": 151,
      "▁b": 152,
      "ll": 153,
      "er": 154,
      "ing": 155,
      "▁to": 156,
      "▁c": 157,
      "an": 158,
      "is": 159,
      "hat": 160,
      "▁g": 161,
      "▁f": 162,
      "or": 163,
      "▁l": 164,
      "en": 165,
      "▁W": 166,
      "'s": 167,
      "ow": 168,
      "ve": 169,
      "▁n": 170,
      "ot": 171,
      "nd": 172,
      "es": 173,
      "▁p": 174,
      "▁T": 175,
      "▁o": 176,
      "'t": 177,
      "et": 178,
      "▁Y": 179,
      "ed": 180,
      "om": 181,
      "▁th": 182,
      "ar": 183,
      "...": 184,
      "▁he": 185,
      "▁it": 186,
      "st": 187,
      "▁h": 188,
      "e.": 189,
      "ay": 190,
      "▁in": 191,
      "▁ha": 192,
      "▁of": 193,
      "at": 194,
      "▁be": 195,
      "▁k": 196,
      "▁You": 197,
      "▁S": 198,
      "as": 199,
      "▁I'": 200,
      "id": 201,
      "▁A": 202,
      "▁H": 203,
      "gh": 204,
      "▁that": 205,
      "▁and": 206,
      "ld": 207,
      "le": 208,
      "▁on": 209,
      "▁me": 210,
      "ut": 211,
      "out": 212,
      "ck": 213,
      "▁do": 214,
      "▁we": 215,
      "im": 216,
      "▁u": 217,
      "ke": 218,
      "▁M": 219,
      "ght": 220,
      "al": 221,
      "▁is": 222,
      "▁e": 223,
      "--": 224,
      "ver": 225,
      "oo": 226,
      "se": 227,
      "▁N": 228,
      "on't": 229,
      "ri": 230,
      "▁kn": 231,
      "s.": 232,
      "▁B": 233,
      "▁for": 234,
      "▁D": 235,
      "▁The": 236,
      "▁know": 237,
      "▁li": 238,
      "ad": 239,
      "▁re": 240,
      "▁I'm": 241,
      "▁C": 242,
      "'re": 243,
      "ic": 244,
      "▁st": 245,
      "ust": 246,
      "▁your": 247,
      "▁What": 248,
      "ell": 249,
      "▁an": 250,
      "▁was": 251,
      "▁have": 252,
      "▁go": 253,
      "ould": 254,
      "▁don't": 255,
      "▁--": 256,
      "▁this": 257,
      "▁O": 258,
      "▁not": 259,
      "ir": 260,
      "ome": 261,
      "am": 262,
      "ant": 263,
      "ill": 264,
      "ith": 265,
      "y.": 266,
      "▁my": 267,
      "n't": 268,
      "ee": 269,
      "▁j": 270,
      "▁with": 271,
      "▁It": 272,
      "ent": 273,
      "▁what": 274,
      "▁L": 275,
      "ch": 276,
      "▁G": 277,
      "all": 278,
      "▁can": 279,
      "ion": 280,
      "if": 281,
      "hing": 282,
      "her": 283,
      "▁He": 284,
      "ro": 285,
      "▁get": 286,
      "ea": 287,
      "ly": 288,
      "▁are": 289,
      "▁ab": 290,
      "ho": 291,
      "▁ne": 292,
      "ct": 293,
      "▁out": 294,
      "ink": 295,
      "▁want": 296,
      "▁like": 297,
      "ce": 298,
      "▁about": 299,
      "▁J": 300,
      "▁all": 301,
      "ra": 302,
      "ter": 303,
      "▁got": 304,
      "▁just": 305,
      "▁No": 306,
      "▁him": 307,
      "▁as": 308,
      "▁up": 309,
      "▁P": 310,
      "ur": 311,
      "▁here": 312,
      "ight": 313,
      "▁We": 314,
      "▁F": 315,
      "one": 316,
      "▁think": 317,
      "▁did": 318,
      "ake": 319,
      "pp": 320,
      "▁sh": 321,
      "▁at": 322,
      "ook": 323,
      "un": 324,
      "▁R": 325,
      "ood": 326,
      "▁so": 327,
      "▁It's": 328,
      "▁That": 329,
      "▁any": 330,
      "ore": 331,
      "our": 332,
      "▁there": 333,
      "il": 334,
      "right": 335,
      "▁And": 336,
      "▁wor": 337,
      "▁they": 338,
      "ie": 339,
      "ry": 340,
      "op": 341,
      "ack": 342,
      "and": 343,
      "ind": 344,
      "hy": 345,
      "▁su": 346,
      "very": 347,
      "han": 348,
      "▁E": 349,
      "ive": 350,
      "▁but": 351,
      "▁it.": 352,
      "od": 353,
      "▁her": 354,
      "▁you.": 355,
      "▁right": 356,
      "▁going": 357,
      "▁whe": 358,
      "▁some": 359,
      "▁no": 360,
      "▁de": 361,
      "art": 362,
      "us": 363,
      "▁if": 364,
      "es.": 365,
      "▁see": 366,
      "other": 367,
      "▁one": 368,
      "rom": 369,
      "▁But": 370,
      "▁al": 371,
      "ig": 372,
      "uck": 373,
      "ain": 374,
      "'ll": 375,
      "own": 376,
      "au": 377,
      "▁r": 378,
      "ist": 379,
      "▁Oh": 380,
      "end": 381,
      "ess": 382,
      "▁say": 383,
      "▁Well": 384,
      "▁would": 385,
      "est": 386,
      "ing.": 387,
      "▁...": 388,
      "▁she": 389,
      "alk": 390,
      "▁man": 391,
      "ally": 392,
      "▁tim": 393,
      "▁sa": 394,
      "▁you're": 395,
      "ong": 396,
      "▁it's": 397,
      "▁pl": 398,
      "rou": 399,
      "▁lo": 400,
      "eah": 401,
      "ast": 402,
      "▁me.": 403,
      "▁or": 404,
      "ven": 405,
      "red": 406,
      "▁who": 407,
      "em": 408,
      "▁gu": 409,
      "▁I'll": 410,
      "omet": 411,
      "ak": 412,
      "▁could": 413,
      "▁How": 414,
      "▁se": 415,
      "▁now": 416,
      "os": 417,
      "▁That's": 418,
      "ul": 419,
      "way": 420,
      "▁tell": 421,
      "ab": 422,
      "▁were": 423,
      "▁his": 424,
      "ol": 425,
      "in'": 426,
      "▁from": 427,
      "▁Th": 428,
      "▁been": 429,
      "ag": 430,
      "▁They": 431,
      "▁us": 432,
      "u>": 433,
      "▁back": 434,
      "na": 435,
      "▁-": 436,
      "er.": 437,
      "▁You're": 438,
      "▁com": 439,
      "▁look": 440,
      "ard": 441,
      "▁them": 442,
      "▁can't": 443,
      "um": 444,
      "▁ex": 445,
      "ear": 446,
      "▁Yeah": 447,
      "ame": 448,
      "▁will": 449,
      "ick": 450,
      "qu": 451,
      "ed.": 452,
      "itt": 453,
      "el": 454,
      "▁thing": 455,
      "thing": 456,
      "▁good": 457,
      "▁somet": 458,
      "▁mean": 459,
      "▁Whe": 460,
      "▁too": 461,
      "lf": 462,
      "ure": 463,
      "ation": 464,
      "▁off": 465,
      "▁had": 466,
      "▁talk": 467,
      "▁She": 468,
      "'ve": 469,
      "▁didn't": 470,
      "▁So": 471,
      "▁Why": 472,
      "nt": 473,
      "ers": 474,
      "▁Do": 475,
      "ay.": 476,
      "▁I've": 477,
      "▁con": 478,
      "are": 479,
      "fe": 480,
      "▁when": 481,
      "▁ag": 482,
      "ous": 483,
      "▁something": 484,
      "▁sp": 485,
      "ort": 486,
      "▁pro": 487,
      "▁how": 488,
      "▁K": 489,
      "ate": 490,
      "▁int": 491,
      "▁never": 492,
      "▁take": 493,
      "▁you?": 494,
      "▁This": 495,
      "▁time": 496,
      "▁need": 497,
      "▁come": 498,
      "▁Mr": 499,
      "▁work": 500,
      "▁every": 501,
      "▁tw": 502,
      "▁down": 503,
      "▁gon": 504,
      "be": 505,
      "ice": 506,
      "▁If": 507,
      "▁happ": 508,
      "'d": 509,
      "▁over": 510,
      "▁make": 511,
      "▁Don't": 512,
      "▁call": 513,
      "ap": 514,
      "ittle": 515,
      "ause": 516,
      "▁Not": 517,
      "▁gonna": 518,
      "res": 519,
      "ew": 520,
      "▁more": 521,
      "▁fuck": 522,
      "ody": 523,
      "s?": 524,
      "▁'": 525,
      "eop": 526,
      "ose": 527,
      "ff": 528,
      "▁that's": 529,
      "▁little": 530,
      "ought": 531,
      "▁let": 532,
      "▁should": 533,
      "ine": 534,
      "▁way": 535,
      "▁tr": 536,
      "▁There": 537,
      "self": 538,
      "▁our": 539,
      "▁here.": 540,
      "▁bet": 541,
      "reat": 542,
      "▁am": 543,
      "▁v": 544,
      "ge": 545,
      "▁than": 546,
      "▁St": 547,
      "ac": 548,
      "ect": 549,
      "▁mu": 550,
      "▁kill": 551,
      "▁Yes": 552,
      "ty": 553,
      "▁does": 554,
      "aybe": 555,
      "ble": 556,
      "ber": 557,
      "▁mo": 558,
      "▁it?": 559,
      "h.": 560,
      "▁love": 561,
      "▁has": 562,
      "▁peop": 563,
      "cause": 564,
      "▁said": 565,
      "▁qu": 566,
      "nder": 567,
      "▁cl": 568,
      "</": 569,
      "▁then": 570,
      "▁U": 571,
      "iss": 572,
      "▁that.": 573,
      "▁much": 574,
      "▁know.": 575,
      "▁guy": 576,
      "body": 577,
      "▁really": 578,
      "▁happen": 579,
      "▁<": 580,
      "▁by": 581,
      "hi": 582,
      "▁Where": 583,
      "ond": 584,
      "▁Mr.": 585,
      "▁only": 586,
      "▁He's": 587,
      "▁What's": 588,
      "▁No.": 589,
      "eel": 590,
      "ud": 591,
      "▁af": 592,
      "▁where": 593,
      "▁bl": 594,
      "ide": 595,
      "▁Who": 596,
      "oy": 597,
      "▁very": 598,
      "▁Is": 599,
      "ase": 600,
      "ound": 601,
      "▁lea": 602,
      "round": 603,
      "pl": 604,
      "▁year": 605,
      "▁Just": 606,
      "▁Now": 607,
      "▁V": 608,
      "▁under": 609,
      "▁him.": 610,
      "eep": 611,
      "▁en": 612,
      "▁co": 613,
      "ough": 614,
      "▁sc": 615,
      "th": 616,
      "▁wr": 617,
      "ree": 618,
      "▁people": 619,
      "ace": 620,
      "▁ro": 621,
      "▁My": 622,
      "▁thought": 623,
      "</u>": 624,
      "▁sure": 625,
      "▁other": 626,
      "▁why": 627,
      "lp": 628,
      "▁anything": 629,
      "ob": 630,
      "▁two": 631,
      "▁feel": 632,
      "▁he's": 633,
      "ving": 634,
      "▁give": 635,
      "ait": 636,
      "riend": 637,
      "▁bel": 638,
      "▁<u>": 639,
      "▁le": 640,
      "▁even": 641,
      "▁ask": 642,
      "ta": 643,
      "▁night": 644,
      "fore": 645,
      "▁into": 646,
      "ep": 647,
      "▁find": 648,
      "kay": 649,
      "le.": 650,
      "y?": 651,
      "▁again": 652,
      "▁I'd": 653,
      "▁doing": 654,
      "ting": 655,
      "ull": 656,
      "▁An": 657,
      "orr": 658,
      "▁long": 659,
      "irst": 660,
      "on.": 661,
      "ieve": 662,
      "ather": 663,
      "▁help": 664,
      "ite": 665,
      "▁Let": 666,
      "▁day": 667,
      "▁ever": 668,
      "a.": 669,
      "▁try": 670,
      "▁Look": 671,
      "▁around": 672,
      "▁Are": 673,
      "ire": 674,
      "ret": 675,
      "▁br": 676,
      "ad.": 677,
      "▁before": 678,
      "orn": 679,
      "▁mone": 680,
      "▁min": 681,
      "▁God": 682,
      "ran": 683,
      "▁All": 684,
      "▁must": 685,
      "▁told": 686,
      "o.": 687,
      "urn": 688,
      "ave": 689,
      "per": 690,
      "▁that?": 691,
      "▁still": 692,
      "▁im": 693,
      "▁Did": 694,
      "get": 695,
      "▁Be": 696,
      "ool": 697,
      "▁In": 698,
      "▁gir": 699,
      "▁better": 700,
      "▁put": 701,
      "▁friend": 702,
      "▁believe": 703,
      "▁won't": 704,
      "ade": 705,
      "▁car": 706,
      "ways": 707,
      "ci": 708,
      "t.": 709,
      "▁What?": 710,
      "ass": 711,
      "▁hu": 712,
      "iz": 713,
      "ment": 714,
      "hank": 715,
      "▁Yes.": 716,
      "▁un": 717,
      "▁On": 718,
      "▁kid": 719,
      "▁po": 720,
      "▁well": 721,
      "▁rem": 722,
      "▁kind": 723,
      "▁Thank": 724,
      "▁away": 725,
      "▁sir": 726,
      "▁last": 727,
      "▁Then": 728,
      "act": 729,
      "▁ar": 730,
      "▁first": 731,
      "ish": 732,
      "▁care": 733,
      "▁old": 734,
      "▁part": 735,
      "▁keep": 736,
      "▁Good": 737,
      "isten": 738,
      "ies": 739,
      "▁We're": 740,
      "al.": 741,
      "▁always": 742,
      "▁after": 743,
      "▁girl": 744,
      "▁cour": 745,
      "ue": 746,
      "▁me?": 747,
      "▁now.": 748,
      "ord": 749,
      "ity": 750,
      "▁we're": 751,
      "ix": 752,
      "ion.": 753,
      "▁their": 754,
      "▁these": 755,
      "▁lot": 756,
      "▁cou": 757,
      "▁chan": 758,
      "▁Hey": 759,
      "stand": 760,
      "▁.": 761,
      "▁Maybe": 762,
      "ce.": 763,
      "ady": 764,
      "▁Ch": 765,
      "▁Can": 766,
      "ng": 767,
      "▁right.": 768,
      "▁wh": 769,
      "orry": 770,
      "▁nothing": 771,
      "▁sw": 772,
      "▁real": 773,
      "▁new": 774,
      "▁Jo": 775,
      "▁hand": 776,
      "▁When": 777,
      "▁Yeah.": 778,
      "▁those": 779,
      "ach": 780,
      "atch": 781,
      "an.": 782,
      "▁big": 783,
      "▁hell": 784,
      "pt": 785,
      "k.": 786,
      "▁Your": 787,
      "▁start": 788,
      "▁doesn't": 789,
      "▁sm": 790,
      "▁live": 791,
      "▁mar": 792,
      "▁minut": 793,
      "▁dis": 794,
      "▁things": 795,
      "se.": 796,
      "▁because": 797,
      "▁There's": 798,
      "or.": 799,
      "▁understand": 800,
      "dd": 801,
      "▁wait": 802,
      "▁el": 803,
      "har": 804,
      "▁up.": 805,
      "ip": 806,
      "▁dr": 807,
      "▁bu": 808,
      "et.": 809,
      "▁there.": 810,
      "ever": 811,
      "▁out.": 812,
      "▁ac": 813,
      "sp": 814,
      "▁great": 815,
      "▁shit": 816,
      "h?": 817,
      "ft": 818,
      "lease": 819,
      "▁hear": 820,
      "▁life": 821,
      "amn": 822,
      "▁fl": 823,
      "▁run": 824,
      "▁Come": 825,
      "▁isn't": 826,
      "ried": 827,
      "ress": 828,
      "▁supp": 829,
      "ight.": 830,
      "▁wouldn't": 831,
      "old": 832,
      "ful": 833,
      "▁fin": 834,
      "▁own": 835,
      "▁For": 836,
      "▁sec": 837,
      "ember": 838,
      "▁bus": 839,
      "in't": 840,
      "▁ass": 841,
      "▁might": 842,
      "age": 843,
      "▁Re": 844,
      "rough": 845,
      "▁wrong": 846,
      "▁show": 847,
      "tain": 848,
      "▁name": 849,
      "▁mat": 850,
      "ing?": 851,
      "▁everything": 852,
      "▁act": 853,
      "▁Mar": 854,
      "▁leave": 855,
      "▁play": 856,
      "ock": 857,
      "▁Sh": 858,
      "aw": 859,
      "▁mind": 860,
      "▁there's": 861,
      "▁made": 862,
      "si": 863,
      "og": 864,
      "▁yourself": 865,
      "▁per": 866,
      "▁through": 867,
      "▁che": 868,
      "int": 869,
      "hed": 870,
      "▁wom": 871,
      "▁enough": 872,
      "▁stu": 873,
      "▁time.": 874,
      "▁what?": 875,
      "av": 876,
      "een": 877,
      "aking": 878,
      "▁stay": 879,
      "▁id": 880,
      "▁bad": 881,
      "s...": 882,
      "▁pr": 883,
      "ign": 884,
      "kay.": 885,
      "▁place": 886,
      "▁talking": 887,
      "▁wanted": 888,
      "▁har": 889,
      "▁gotta": 890,
      "ike": 891,
      "▁this.": 892,
      "▁tra": 893,
      "▁money": 894,
      "ren": 895,
      "▁cra": 896,
      "orm": 897,
      "▁job": 898,
      "▁ain't": 899,
      "!!": 900,
      "▁boy": 901,
      "▁years": 902,
      "ich": 903,
      "▁do.": 904,
      "....": 905,
      "▁Al": 906,
      "▁imp": 907,
      "▁gr": 908,
      "▁sorry": 909,
      "▁di": 910,
      "▁getting": 911,
      "ise": 912,
      "one.": 913,
      "▁She's": 914,
      "▁wasn't": 915,
      "▁wee": 916,
      "▁bo": 917,
      "▁world": 918,
      "▁Let's": 919,
      "▁her.": 920,
      "▁room": 921,
      "en.": 922,
      "ess.": 923,
      "▁happened": 924,
      "▁you've": 925,
      "ict": 926,
      "ub": 927,
      "▁Get": 928,
      "▁another": 929,
      "▁fucking": 930,
      "▁came": 931,
      "rest": 932,
      "▁father": 933,
      "▁saw": 934,
      "▁mother": 935,
      "▁here?": 936,
      "▁guess": 937,
      "here": 938,
      "ail": 939,
      "▁remember": 940,
      "▁They're": 941,
      "▁maybe": 942,
      "ent.": 943,
      "▁Go": 944,
      "▁sho": 945,
      "▁three": 946,
      "▁cr": 947,
      "▁being": 948,
      "▁else": 949,
      "▁matter": 950,
      "▁Okay": 951,
      "akes": 952,
      "▁they're": 953,
      "ost": 954,
      "▁them.": 955,
      "▁knew": 956,
      "▁sir.": 957,
      "hn": 958,
      "▁man.": 959,
      "▁home": 960,
      "er?": 961,
      "▁turn": 962,
      "arl": 963,
      "▁ra": 964,
      "▁done": 965,
      "▁meet": 966,
      "mm": 967,
      "ang": 968,
      "▁Hell": 969,
      "ice.": 970,
      "ven't": 971,
      "orrow": 972,
      "▁ser": 973,
      "▁pret": 974,
      "▁plan": 975,
      "▁sl": 976,
      "oll": 977,
      "▁okay": 978,
      "▁Sure": 979,
      "ey": 980,
      "pen": 981,
      "▁dif": 982,
      "ouse": 983,
      "▁trying": 984,
      "...?": 985,
      "▁rec": 986,
      "▁ad": 987,
      "▁whole": 988,
      "gg": 989,
      "able": 990,
      "▁went": 991,
      "▁mon": 992,
      "▁heard": 993,
      "blem": 994,
      "▁hard": 995,
      "▁what's": 996,
      "▁too.": 997,
      "▁head": 998,
      "▁ins": 999,
      "leep": 1000,
      "▁pers": 1001,
      "▁us.": 1002,
      "▁stop": 1003,
      "▁left": 1004,
      "▁seen": 1005,
      "▁hour": 1006,
      "▁someone": 1007,
      "▁app": 1008,
      "air": 1009,
      "e?": 1010,
      "ple": 1011,
      "▁John": 1012,
      "ian": 1013,
      "▁fun": 1014,
      "day": 1015,
      "ory": 1016,
      "▁Am": 1017,
      "ndred": 1018,
      "▁course": 1019,
      "▁hur": 1020,
      "▁ton": 1021,
      "▁sha": 1022,
      "▁you'll": 1023,
      "▁Every": 1024,
      "ious": 1025,
      "enty": 1026,
      "ince": 1027,
      "▁right?": 1028,
      "▁problem": 1029,
      "▁busin": 1030,
      "▁read": 1031,
      "man": 1032,
      "▁she's": 1033,
      "ny": 1034,
      "▁'em": 1035,
      "▁best": 1036,
      "▁looking": 1037,
      "▁idea": 1038,
      "ved": 1039,
      "▁Of": 1040,
      "▁Tell": 1041,
      "▁Some": 1042,
      "▁As": 1043,
      "xt": 1044,
      "▁Any": 1045,
      "▁haven't": 1046,
      "▁bit": 1047,
      "ly.": 1048,
      "▁quest": 1049,
      "▁walk": 1050,
      "reak": 1051,
      "▁ph": 1052,
      "ks": 1053,
      "inn": 1054,
      "▁fam": 1055,
      "▁Will": 1056,
      "▁this?": 1057,
      "▁may": 1058,
      "▁att": 1059,
      "▁used": 1060,
      "▁pos": 1061,
      "▁To": 1062,
      "ance": 1063,
      "▁dead": 1064,
      "▁Br": 1065,
      "▁Because": 1066,
      "▁hat": 1067,
      "igh": 1068,
      "▁hop": 1069,
      "ps": 1070,
      "▁found": 1071,
      "▁do?": 1072,
      "▁You've": 1073,
      "▁cle": 1074,
      "osed": 1075,
      "▁morn": 1076,
      "▁on.": 1077,
      "ence": 1078,
      "ister": 1079,
      "▁word": 1080,
      "▁acc": 1081,
      "▁back.": 1082,
      "▁lat": 1083,
      "leas": 1084,
      "ax": 1085,
      "▁bab": 1086,
      "▁hundred": 1087,
      "orry.": 1088,
      "ar.": 1089,
      "ream": 1090,
      "▁Uh": 1091,
      "▁seem": 1092,
      "▁myself": 1093,
      "ation.": 1094,
      "▁wif": 1095,
      "▁miss": 1096,
      "▁We'll": 1097,
      "▁pay": 1098,
      "▁Ex": 1099,
      "▁Like": 1100,
      "▁comp": 1101,
      "rist": 1102,
      "s!": 1103,
      "▁gl": 1104,
      "▁tri": 1105,
      "▁couldn't": 1106,
      "▁go.": 1107,
      "aught": 1108,
      "▁few": 1109,
      "▁dri": 1110,
      "▁chi": 1111,
      "▁sch": 1112,
      "▁diffe": 1113,
      "▁same": 1114,
      "gether": 1115,
      "▁is.": 1116,
      "▁many": 1117,
      "▁pol": 1118,
      "bab": 1119,
      "▁bot": 1120,
      "▁listen": 1121,
      "che": 1122,
      "eet": 1123,
      "▁sur": 1124,
      "ath": 1125,
      "▁end": 1126,
      "ers.": 1127,
      "▁rep": 1128,
      "ine.": 1129,
      "▁coming": 1130,
      "▁pre": 1131,
      "▁nice": 1132,
      "p.": 1133,
      "▁way.": 1134,
      "▁killed": 1135,
      "▁use": 1136,
      "▁Fran": 1137,
      "▁De": 1138,
      "ry.": 1139,
      "ually": 1140,
      "▁you'd": 1141,
      "▁it!": 1142,
      "it.": 1143,
      "▁cont": 1144,
      "▁one.": 1145,
      "▁alre": 1146,
      "▁stuff": 1147,
      "▁guys": 1148,
      "▁Cl": 1149,
      "▁tom": 1150,
      "▁rest": 1151,
      "▁des": 1152,
      "▁together": 1153,
      "▁tow": 1154,
      "▁person": 1155,
      "▁1": 1156,
      "▁most": 1157,
      "▁pretty": 1158,
      "anna": 1159,
      "▁house": 1160,
      "▁again.": 1161,
      "ary": 1162,
      "▁all.": 1163,
      "▁Have": 1164,
      "▁without": 1165,
      "▁wond": 1166,
      "▁yes": 1167,
      "▁Jes": 1168,
      "▁ya": 1169,
      "▁count": 1170,
      "ie.": 1171,
      "▁set": 1172,
      "▁ch": 1173,
      "▁One": 1174,
      "▁craz": 1175,
      "▁school": 1176,
      "▁cha": 1177,
      "ated": 1178,
      "▁drink": 1179,
      "hile": 1180,
      "▁Or": 1181,
      "bably": 1182,
      "▁tomorrow": 1183,
      "▁called": 1184,
      "▁sleep": 1185,
      "ird": 1186,
      "ild": 1187,
      "where": 1188,
      "raid": 1189,
      "ract": 1190,
      "ason": 1191,
      "▁ey": 1192,
      "▁sit": 1193,
      "▁next": 1194,
      "▁exp": 1195,
      "▁Nothing": 1196,
      "erest": 1197,
      "ome.": 1198,
      "▁child": 1199,
      "▁pick": 1200,
      "▁bring": 1201,
      "▁Why?": 1202,
      "▁good.": 1203,
      "ired": 1204,
      "▁Christ": 1205,
      "in.": 1206,
      "▁war": 1207,
      "▁watch": 1208,
      "▁stand": 1209,
      "▁mom": 1210,
      "ark": 1211,
      "fe.": 1212,
      "▁Here": 1213,
      "▁took": 1214,
      "▁comm": 1215,
      "sw": 1216,
      "ntil": 1217,
      "▁Tw": 1218,
      "ical": 1219,
      "▁him?": 1220,
      "▁five": 1221,
      "sh": 1222,
      "rent": 1223,
      "ace.": 1224,
      "▁men": 1225,
      "▁cut": 1226,
      "ctor": 1227,
      "aut": 1228,
      "▁em": 1229,
      "ug": 1230,
      "▁eat": 1231,
      "ily": 1232,
      "▁doll": 1233,
      "ont": 1234,
      "▁not.": 1235,
      "ousand": 1236,
      "▁Listen": 1237,
      "dy": 1238,
      "my": 1239,
      "▁we'll": 1240,
      "▁deal": 1241,
      "ither": 1242,
      "▁Okay.": 1243,
      "ia": 1244,
      "▁afraid": 1245,
      "es?": 1246,
      "pped": 1247,
      "▁Dr": 1248,
      "▁Jack": 1249,
      "▁question": 1250,
      "----": 1251,
      "ch.": 1252,
      "▁six": 1253,
      "▁yeah": 1254,
      "cu": 1255,
      "pe": 1256,
      "▁gun": 1257,
      "▁dec": 1258,
      "▁interest": 1259,
      "▁wonder": 1260,
      "▁At": 1261,
      "ans": 1262,
      "▁See": 1263,
      "ons": 1264,
      "▁woman": 1265,
      "▁second": 1266,
      "▁move": 1267,
      "▁fig": 1268,
      "ning": 1269,
      "▁wants": 1270,
      "i.": 1271,
      "▁brother": 1272,
      "▁four": 1273,
      "▁already": 1274,
      "rew": 1275,
      "▁open": 1276,
      "▁hold": 1277,
      "▁eas": 1278,
      "ss": 1279,
      "fect": 1280,
      "▁supposed": 1281,
      "▁such": 1282,
      "eak": 1283,
      "aul": 1284,
      "▁break": 1285,
      "▁met": 1286,
      "▁ten": 1287,
      "▁ter": 1288,
      "▁in.": 1289,
      "ge.": 1290,
      "▁far": 1291,
      "iv": 1292,
      "you": 1293,
      "vel": 1294,
      "▁thank": 1295,
      "▁night.": 1296,
      "?!": 1297,
      "▁thousand": 1298,
      "ars": 1299,
      "az": 1300,
      "▁Please": 1301,
      "▁check": 1302,
      "▁book": 1303,
      "▁ri": 1304,
      "▁says": 1305,
      "-f": 1306,
      "▁trou": 1307,
      "00": 1308,
      "▁since": 1309,
      "▁sorry.": 1310,
      "cept": 1311,
      "▁beaut": 1312,
      "▁week": 1313,
      "▁please": 1314,
      "ive.": 1315,
      "▁half": 1316,
      "ous.": 1317,
      "▁Dad": 1318,
      "▁son": 1319,
      "ame.": 1320,
      "▁until": 1321,
      "▁something.": 1322,
      "▁Wh": 1323,
      "▁pri": 1324,
      "▁Miss": 1325,
      "▁Somet": 1326,
      "▁which": 1327,
      "▁cop": 1328,
      "▁inv": 1329,
      "ru": 1330,
      "▁probably": 1331,
      "'m": 1332,
      "▁prom": 1333,
      "▁You'll": 1334,
      "▁shot": 1335,
      "iful": 1336,
      "ared": 1337,
      "▁Would": 1338,
      "▁hot": 1339,
      "▁Wait": 1340,
      "▁wanna": 1341,
      "no": 1342,
      "▁down.": 1343,
      "▁business": 1344,
      "les": 1345,
      "▁makes": 1346,
      "ident": 1347,
      "m.": 1348,
      "less": 1349,
      "▁thing.": 1350,
      "▁uh": 1351,
      "▁Har": 1352,
      "urd": 1353,
      "▁worry": 1354,
      "▁while": 1355,
      "▁hurt": 1356,
      "ered": 1357,
      "ke.": 1358,
      "▁rel": 1359,
      "▁Com": 1360,
      "ble.": 1361,
      "ount": 1362,
      "▁Se": 1363,
      "▁jo": 1364,
      "▁let's": 1365,
      "▁to.": 1366,
      "ize": 1367,
      "by": 1368,
      "▁sen": 1369,
      "▁hope": 1370,
      "▁town": 1371,
      "more": 1372,
      "ery": 1373,
      "▁exact": 1374,
      "▁te": 1375,
      "▁wat": 1376,
      "▁Mrs.": 1377,
      "▁Take": 1378,
      "▁sound": 1379,
      "▁hit": 1380,
      "ity.": 1381,
      "ide.": 1382,
      "▁you...": 1383,
      "▁damn": 1384,
      "▁pleas": 1385,
      "▁life.": 1386,
      "▁heart": 1387,
      "▁gave": 1388,
      "▁New": 1389,
      "▁lost": 1390,
      "umb": 1391,
      "ertain": 1392,
      "▁saying": 1393,
      "ition": 1394,
      "▁ord": 1395,
      "▁compl": 1396,
      "▁ap": 1397,
      "▁young": 1398,
      "▁?": 1399,
      "▁point": 1400,
      "ower": 1401,
      "▁luck": 1402,
      "▁there?": 1403,
      "▁month": 1404,
      "ump": 1405,
      "ors": 1406,
      "ally.": 1407,
      "▁least": 1408,
      "▁different": 1409,
      "▁Le": 1410,
      "...I": 1411,
      "▁Me": 1412,
      "▁Dr.": 1413,
      "ow.": 1414,
      "▁wife": 1415,
      "▁Ar": 1416,
      "cl": 1417,
      "▁aw": 1418,
      "▁Un": 1419,
      "▁law": 1420,
      "▁Right": 1421,
      "▁Sp": 1422,
      "▁did.": 1423,
      "▁Jesus": 1424,
      "▁dream": 1425,
      "▁so.": 1426,
      "▁anyway": 1427,
      "▁Cap": 1428,
      "▁resp": 1429,
      "▁Ab": 1430,
      "ime": 1431,
      "▁gets": 1432,
      "▁fight": 1433,
      "▁Bl": 1434,
      "▁knows": 1435,
      "▁import": 1436,
      "▁huh?": 1437,
      "ed?": 1438,
      "aid": 1439,
      "▁sign": 1440,
      "uth": 1441,
      "▁having": 1442,
      "▁reason": 1443,
      "▁expl": 1444,
      "ic.": 1445,
      "▁Fuck": 1446,
      "▁somebody": 1447,
      "▁me!": 1448,
      "▁okay?": 1449,
      "ork": 1450,
      "▁answ": 1451,
      "▁anyone": 1452,
      "▁thinking": 1453,
      "▁ent": 1454,
      "▁about?": 1455,
      "▁money.": 1456,
      "▁Hello": 1457,
      "▁Tom": 1458,
      "ard.": 1459,
      "anc": 1460,
      "day.": 1461,
      "▁home.": 1462,
      "▁know?": 1463,
      "▁hate": 1464,
      "▁mean?": 1465,
      "ies.": 1466,
      "▁fr": 1467,
      "▁spe": 1468,
      "▁buy": 1469,
      "▁ob": 1470,
      "illion": 1471,
      "▁anymore": 1472,
      "▁With": 1473,
      "▁each": 1474,
      "▁cas": 1475,
      "▁Was": 1476,
      "▁once": 1477,
      "▁We've": 1478,
      "▁cho": 1479,
      "ank": 1480,
      "▁aren't": 1481,
      "▁working": 1482,
      "▁twenty": 1483,
      "▁trust": 1484,
      "▁beautiful": 1485,
      "▁Where's": 1486,
      "row": 1487,
      "▁Su": 1488,
      "▁expect": 1489,
      "form": 1490,
      "pr": 1491,
      "▁fif": 1492,
      "▁mov": 1493,
      "▁light": 1494,
      "OU": 1495,
      "▁fact": 1496,
      "ern": 1497,
      "▁ev": 1498,
      "ah": 1499,
      "▁pass": 1500,
      "ger": 1501,
      "me": 1502,
      "▁hum": 1503,
      "ove": 1504,
      "ollow": 1505,
      "so": 1506,
      "▁gone": 1507,
      "▁May": 1508,
      "▁off.": 1509,
      "▁important": 1510,
      "▁blood": 1511,
      "-t": 1512,
      "▁Ge": 1513,
      "ne": 1514,
      "▁gi": 1515,
      "▁now?": 1516,
      "▁case": 1517,
      "▁Ne": 1518,
      "▁fuckin'": 1519,
      "▁fine.": 1520,
      "ating": 1521,
      "ate.": 1522,
      "at.": 1523,
      "▁forget": 1524,
      "▁away.": 1525,
      "▁possi": 1526,
      "▁you!": 1527,
      "▁taking": 1528,
      "a?": 1529,
      "imes": 1530,
      "▁telling": 1531,
      "ations": 1532,
      "ins": 1533,
      "▁sk": 1534,
      "▁making": 1535,
      "▁shoot": 1536,
      "ure.": 1537,
      "▁beg": 1538,
      "ile": 1539,
      "ph": 1540,
      "▁Char": 1541,
      "▁dro": 1542,
      "ual": 1543,
      "▁bro": 1544,
      "▁dead.": 1545,
      "▁pull": 1546,
      "▁lear": 1547,
      "▁looks": 1548,
      "▁wish": 1549,
      "irty": 1550,
      "▁send": 1551,
      "▁okay.": 1552,
      "sy": 1553,
      "eric": 1554,
      "▁soon": 1555,
      "▁couple": 1556,
      "app": 1557,
      "▁tou": 1558,
      "▁Mom": 1559,
      "cial": 1560,
      "▁bra": 1561,
      "▁day.": 1562,
      "▁high": 1563,
      "most": 1564,
      "▁asked": 1565,
      "du": 1566,
      "▁Captain": 1567,
      "▁Does": 1568,
      "▁die": 1569,
      "▁Q": 1570,
      "▁conf": 1571,
      "▁both": 1572,
      "▁Sc": 1573,
      "ouse.": 1574,
      "unch": 1575,
      "up": 1576,
      "▁air": 1577,
      "▁sick": 1578,
      "▁doing?": 1579,
      "ott": 1580,
      "ung": 1581,
      "▁comes": 1582,
      "▁I...": 1583,
      "▁pict": 1584,
      "land": 1585,
      "ial": 1586,
      "▁Je": 1587,
      "▁fell": 1588,
      "▁are.": 1589,
      "▁no.": 1590,
      "enc": 1591,
      "▁murd": 1592,
      "-h": 1593,
      "▁hon": 1594,
      "▁stra": 1595,
      "▁Hu": 1596,
      "▁against": 1597,
      "▁tonight": 1598,
      "ject": 1599,
      "▁sort": 1600,
      "▁face": 1601,
      "umber": 1602,
      "cuse": 1603,
      "▁exactly": 1604,
      "▁sy": 1605,
      "idd": 1606,
      "▁quite": 1607,
      "▁Ma": 1608,
      "▁fire": 1609,
      "▁TH": 1610,
      "icul": 1611,
      "▁ship": 1612,
      "▁dep": 1613,
      "ness": 1614,
      "▁char": 1615,
      "▁res": 1616,
      "▁we've": 1617,
      "▁disc": 1618,
      "cc": 1619,
      "▁work.": 1620,
      "▁godd": 1621,
      "ention": 1622,
      "▁Gr": 1623,
      "ue.": 1624,
      "band": 1625,
      "▁dog": 1626,
      "amp": 1627,
      "▁pie": 1628,
      "io": 1629,
      "▁stre": 1630,
      "▁anything.": 1631,
      "▁follow": 1632,
      "ener": 1633,
      "come": 1634,
      "▁pat": 1635,
      "ction": 1636,
      "▁married": 1637,
      "▁Geor": 1638,
      "▁inst": 1639,
      "▁learn": 1640,
      "▁ret": 1641,
      "▁Give": 1642,
      "ake.": 1643,
      "▁Bill": 1644,
      "ient": 1645,
      "▁His": 1646,
      "▁forg": 1647,
      "▁along": 1648,
      "▁Americ": 1649,
      "▁million": 1650,
      "att": 1651,
      "usband": 1652,
      "pid": 1653,
      "▁sent": 1654,
      "▁bull": 1655,
      "ely": 1656,
      "on?": 1657,
      "▁door": 1658,
      "▁Bet": 1659,
      "sel": 1660,
      "▁Sure.": 1661,
      "hh": 1662,
      "▁full": 1663,
      "▁pres": 1664,
      "▁though": 1665,
      "▁family": 1666,
      "▁inter": 1667,
      "▁Af": 1668,
      "▁minute": 1669,
      "ross": 1670,
      "ER": 1671,
      "▁phone": 1672,
      "▁either": 1673,
      "ween": 1674,
      "▁me...": 1675,
      "▁Pro": 1676,
      "▁Oh.": 1677,
      "▁say?": 1678,
      "olog": 1679,
      "▁wind": 1680,
      "ves": 1681,
      "▁Man": 1682,
      "▁days": 1683,
      "hin'": 1684,
      "ole": 1685,
      "y!": 1686,
      "▁Jim": 1687,
      "▁years.": 1688,
      "▁Z": 1689,
      "▁mess": 1690,
      "▁Thanks": 1691,
      "artment": 1692,
      "▁friends": 1693,
      "▁tried": 1694,
      "ier": 1695,
      "▁goes": 1696,
      "▁sex": 1697,
      "▁cons": 1698,
      "arent": 1699,
      "▁speak": 1700,
      "▁much.": 1701,
      "hind": 1702,
      "▁Got": 1703,
      "ying": 1704,
      "▁lik": 1705,
      "led": 1706,
      "▁sim": 1707,
      "▁for?": 1708,
      "▁place.": 1709,
      "▁tonight.": 1710,
      "▁close": 1711,
      "▁feeling": 1712,
      "▁morning": 1713,
      "▁yet": 1714,
      "▁husband": 1715,
      "▁alone": 1716,
      "▁late": 1717,
      "iet": 1718,
      "ied": 1719,
      "▁certain": 1720,
      "▁fast": 1721,
      "ens": 1722,
      "now": 1723,
      "is.": 1724,
      "▁shit.": 1725,
      "▁str": 1726,
      "ory.": 1727,
      "age.": 1728,
      "not": 1729,
      "am.": 1730,
      "ield": 1731,
      "▁course.": 1732,
      "teen": 1733,
      "ured": 1734,
      "▁Really": 1735,
      "▁fav": 1736,
      "▁stupid": 1737,
      "▁Could": 1738,
      "▁change": 1739,
      "▁not?": 1740,
      "lic": 1741,
      "vers": 1742,
      "erv": 1743,
      "▁Sir": 1744,
      "▁see.": 1745,
      "▁figure": 1746,
      "▁fil": 1747,
      "▁chance": 1748,
      "er's": 1749,
      "▁coll": 1750,
      "▁leg": 1751,
      "▁hone": 1752,
      "▁Bob": 1753,
      "▁shut": 1754,
      "▁her?": 1755,
      "▁Frank": 1756,
      "▁fine": 1757,
      "enn": 1758,
      "ides": 1759,
      "▁wear": 1760,
      "▁Bar": 1761,
      "ody.": 1762,
      "▁today": 1763,
      "▁behind": 1764,
      "▁YOU": 1765,
      "unk": 1766,
      "y...": 1767,
      "▁tea": 1768,
      "▁ahe": 1769,
      "▁pap": 1770,
      "▁Never": 1771,
      "▁Two": 1772,
      "▁picture": 1773,
      "oot": 1774,
      "▁2": 1775,
      "i>": 1776,
      "ert": 1777,
      "▁bed": 1778,
      "▁between": 1779,
      "▁Who's": 1780,
      "▁fall": 1781,
      "▁ele": 1782,
      "unt": 1783,
      "▁sub": 1784,
      "▁himself": 1785,
      "▁tak": 1786,
      "▁secret": 1787,
      "d.": 1788,
      "IN": 1789,
      "ling": 1790,
      "▁dinn": 1791,
      "▁ago.": 1792,
      "▁det": 1793,
      "▁story": 1794,
      "▁No!": 1795,
      "▁pain": 1796,
      "▁able": 1797,
      "▁almost": 1798,
      "▁yourself.": 1799,
      "the": 1800,
      "▁power": 1801,
      "▁kids": 1802,
      "bb": 1803,
      "▁house.": 1804,
      "ther": 1805,
      "▁ma": 1806,
      "▁dra": 1807,
      "▁ready": 1808,
      "▁about.": 1809,
      "▁anybody": 1810,
      "▁ago": 1811,
      "▁understand.": 1812,
      "▁know...": 1813,
      "▁over.": 1814,
      "▁drive": 1815,
      "▁By": 1816,
      "rol": 1817,
      "el.": 1818,
      "▁police": 1819,
      "ter.": 1820,
      "▁record": 1821,
      "▁hair": 1822,
      "▁Per": 1823,
      "olut": 1824,
      "inc": 1825,
      "▁body": 1826,
      "ison": 1827,
      "▁Ad": 1828,
      "▁then.": 1829,
      "outh": 1830,
      "rought": 1831,
      "▁conc": 1832,
      "▁terri": 1833,
      "▁Hi": 1834,
      "med": 1835,
      "▁bar": 1836,
      "▁Gu": 1837,
      "▁eight": 1838,
      "ant.": 1839,
      "▁waiting": 1840,
      "▁goddamn": 1841,
      "ged": 1842,
      "▁minutes": 1843,
      "▁El": 1844,
      "▁trouble": 1845,
      "▁reg": 1846,
      "▁def": 1847,
      "▁test": 1848,
      "▁side": 1849,
      "▁yet.": 1850,
      "▁Right.": 1851,
      "▁rid": 1852,
      "▁Pet": 1853,
      "▁Something": 1854,
      "▁gra": 1855,
      "▁free": 1856,
      "▁hang": 1857,
      "▁Ah": 1858,
      "▁shouldn't": 1859,
      "-b": 1860,
      "ched": 1861,
      "▁exper": 1862,
      "▁Can't": 1863,
      "▁be.": 1864,
      "ise.": 1865,
      "▁Say": 1866,
      "able.": 1867,
      "▁suppose": 1868,
      "▁Her": 1869,
      "ver.": 1870,
      "▁daught": 1871,
      "▁number": 1872,
      "▁scared": 1873,
      "▁times": 1874,
      "▁brought": 1875,
      "ished": 1876,
      "ash": 1877,
      "osp": 1878,
      "▁outs": 1879,
      "▁stud": 1880,
      "▁mus": 1881,
      "ief": 1882,
      "▁serious": 1883,
      "▁adv": 1884,
      "▁who's": 1885,
      "▁Only": 1886,
      "▁actually": 1887,
      "mit": 1888,
      "itch": 1889,
      "▁mem": 1890,
      "oke": 1891,
      "hes": 1892,
      "ames": 1893,
      "cle": 1894,
      "▁sister": 1895,
      "▁mil": 1896,
      "▁mist": 1897,
      "▁it...": 1898,
      "▁Nobody": 1899,
      "▁everybody": 1900,
      "▁more.": 1901,
      "▁crazy": 1902,
      "▁dad": 1903,
      "▁exc": 1904,
      "▁means": 1905,
      "▁anymore.": 1906,
      "eal": 1907,
      "▁dou": 1908,
      "▁sure.": 1909,
      "▁*": 1910,
      "▁Stop": 1911,
      "▁perfect": 1912,
      "▁job.": 1913,
      "▁children": 1914,
      "s": 1915,
      "▁he?": 1916,
      "ates": 1917,
      "▁true": 1918,
      "▁black": 1919,
      "▁front": 1920,
      "▁whatever": 1921,
      "▁running": 1922,
      "son": 1923,
      "▁dollar": 1924,
      "▁fool": 1925,
      "ric": 1926,
      "▁worth": 1927,
      "▁happy": 1928,
      "▁people.": 1929,
      "▁Very": 1930,
      "ions": 1931,
      "▁say.": 1932,
      "▁things.": 1933,
      "▁build": 1934,
      "▁inc": 1935,
      "▁vis": 1936,
      "▁sweet": 1937,
      "▁Qu": 1938,
      "ett": 1939,
      "▁Sorry": 1940,
      "▁clos": 1941,
      "▁morning.": 1942,
      "ised": 1943,
      "▁After": 1944,
      "▁sing": 1945,
      "ator": 1946,
      "ib": 1947,
      "arly": 1948,
      "▁think?": 1949,
      "gr": 1950,
      "▁alright": 1951,
      "▁weren't": 1952,
      "room": 1953,
      "▁nobody": 1954,
      "mp": 1955,
      "us.": 1956,
      "▁doctor": 1957,
      "ms": 1958,
      "▁Good.": 1959,
      "▁inside": 1960,
      "ck.": 1961,
      "▁lead": 1962,
      "▁kidd": 1963,
      "▁dist": 1964,
      "ward": 1965,
      "▁ext": 1966,
      "▁Pres": 1967,
      "▁prot": 1968,
      "▁Eng": 1969,
      "▁stran": 1970,
      "▁How's": 1971,
      "▁Shut": 1972,
      "▁Which": 1973,
      "n.": 1974,
      "▁Che": 1975,
      "irt": 1976,
      "ents": 1977,
      "▁started": 1978,
      "▁About": 1979,
      "▁I?": 1980,
      "▁Tr": 1981,
      "▁its": 1982,
      "itting": 1983,
      "--------": 1984,
      "ering": 1985,
      "erg": 1986,
      "▁hands": 1987,
      "▁Pl": 1988,
      "▁glad": 1989,
      "▁complet": 1990,
      "omb": 1991,
      "▁everyone": 1992,
      "▁cold": 1993,
      "ence.": 1994,
      "▁living": 1995,
      "ten": 1996,
      "▁dang": 1997,
      "▁also": 1998,
      "▁myself.": 1999,
      "its": 2000,
      "as.": 2001,
      "▁touch": 2002,
      "ined": 2003,
      "haps": 2004,
      "▁nothing.": 2005,
      "▁clean": 2006,
      "▁rad": 2007,
      "▁girl.": 2008,
      "▁famil": 2009,
      "▁less": 2010,
      "▁up?": 2011,
      "▁somewhere": 2012,
      "▁cap": 2013,
      "▁baby": 2014,
      "▁explain": 2015,
      "o?": 2016,
      "▁alone.": 2017,
      "▁lose": 2018,
      "▁small": 2019,
      "▁dest": 2020,
      "▁ball": 2021,
      "▁Con": 2022,
      "▁women": 2023,
      "▁grand": 2024,
      "▁Charl": 2025,
      "▁ind": 2026,
      "hip": 2027,
      "ful.": 2028,
      "▁past": 2029,
      "▁Ro": 2030,
      "▁around.": 2031,
      "▁surpr": 2032,
      "▁eyes": 2033,
      "▁lau": 2034,
      "▁These": 2035,
      "▁yes.": 2036,
      "▁beat": 2037,
      "▁Rem": 2038,
      "▁lock": 2039,
      "ult": 2040,
      "sych": 2041,
      "▁tired": 2042,
      "▁car.": 2043,
      "▁seems": 2044,
      "▁sell": 2045,
      "▁Thanks.": 2046,
      "ospit": 2047,
      "▁tap": 2048,
      "er...": 2049,
      "▁business.": 2050,
      "▁report": 2051,
      "▁country": 2052,
      "ces": 2053,
      "▁sn": 2054,
      "▁compan": 2055,
      "oc": 2056,
      "stem": 2057,
      "▁Great": 2058,
      "▁Yeah?": 2059,
      "▁before.": 2060,
      "▁mind.": 2061,
      "▁hours": 2062,
      "ane": 2063,
      "▁throw": 2064,
      "▁del": 2065,
      "ited": 2066,
      "ile.": 2067,
      "▁till": 2068,
      "▁Ben": 2069,
      "▁am.": 2070,
      "▁taken": 2071,
      "▁world.": 2072,
      "▁write": 2073,
      "</u>.": 2074,
      "▁marri": 2075,
      "▁happened?": 2076,
      "▁mad": 2077,
      "ets": 2078,
      "▁human": 2079,
      "ald": 2080,
      "iew": 2081,
      "▁food": 2082,
      "▁needs": 2083,
      "ced": 2084,
      "solut": 2085,
      "zz": 2086,
      "▁game": 2087,
      "ude": 2088,
      "▁moment": 2089,
      "-s": 2090,
      "▁ought": 2091,
      "▁catch": 2092,
      "▁ref": 2093,
      "eat": 2094,
      "uff": 2095,
      "▁parent": 2096,
      "▁Lou": 2097,
      "▁cool": 2098,
      "▁help.": 2099,
      "ok": 2100,
      "▁es": 2101,
      "▁here!": 2102,
      "▁Well...": 2103,
      "▁together.": 2104,
      "ton": 2105,
      "y's": 2106,
      "▁fix": 2107,
      "▁inform": 2108,
      "▁Sw": 2109,
      "▁art": 2110,
      "▁minute.": 2111,
      "▁control": 2112,
      "fort": 2113,
      "er!": 2114,
      "▁land": 2115,
      "atur": 2116,
      "▁fore": 2117,
      "▁writ": 2118,
      "▁add": 2119,
      "ings": 2120,
      "▁tomorrow.": 2121,
      "ines": 2122,
      "▁buck": 2123,
      "▁Dan": 2124,
      "▁straight": 2125,
      "▁George": 2126,
      "▁he'll": 2127,
      "▁Comm": 2128,
      "▁please.": 2129,
      "▁Wal": 2130,
      "▁they'll": 2131,
      "▁room.": 2132,
      "vest": 2133,
      "▁friend.": 2134,
      "▁today.": 2135,
      "▁going?": 2136,
      "ick.": 2137,
      "ote": 2138,
      "▁want?": 2139,
      "▁Ag": 2140,
      "▁imag": 2141,
      "▁Everything": 2142,
      "body.": 2143,
      "▁Our": 2144,
      "▁Even": 2145,
      "▁them?": 2146,
      "▁blow": 2147,
      "▁carry": 2148,
      "▁everything.": 2149,
      "▁Really?": 2150,
      "oul": 2151,
      "▁line": 2152,
      "▁par": 2153,
      "▁Car": 2154,
      "▁well.": 2155,
      "▁fifty": 2156,
      "▁favor": 2157,
      "▁easy": 2158,
      "hose": 2159,
      "▁guy.": 2160,
      "ative": 2161,
      "elt": 2162,
      "▁office": 2163,
      "▁Excuse": 2164,
      "ler": 2165,
      "▁death": 2166,
      "▁Isn't": 2167,
      "▁flo": 2168,
      "▁Dav": 2169,
      "▁save": 2170,
      "▁offic": 2171,
      "▁Mart": 2172,
      "▁on?": 2173,
      "ment.": 2174,
      "▁protect": 2175,
      "▁col": 2176,
      "▁psych": 2177,
      "▁Sm": 2178,
      "▁Mic": 2179,
      "▁goin'": 2180,
      "▁Paul": 2181,
      "▁sense": 2182,
      "▁mag": 2183,
      "ush": 2184,
      "ist.": 2185,
      "▁anyway.": 2186,
      "▁sal": 2187,
      "▁From": 2188,
      "▁First": 2189,
      "▁bad.": 2190,
      "entle": 2191,
      "▁rather": 2192,
      "▁asking": 2193,
      "▁name?": 2194,
      "▁an'": 2195,
      "▁Alright": 2196,
      "esides": 2197,
      "▁hospit": 2198,
      "uss": 2199,
      "▁looked": 2200,
      "▁answer": 2201,
      "-hu": 2202,
      "-w": 2203,
      "▁med": 2204,
      "▁bas": 2205,
      "▁hor": 2206,
      "▁Ed": 2207,
      "▁Keep": 2208,
      "▁clot": 2209,
      "rence": 2210,
      "AT": 2211,
      "▁dollars": 2212,
      "▁system": 2213,
      "t": 2214,
      "▁want.": 2215,
      "▁safe": 2216,
      "▁ang": 2217,
      "▁En": 2218,
      "▁will.": 2219,
      "ipp": 2220,
      "▁squ": 2221,
      "ically": 2222,
      "ef": 2223,
      "eg": 2224,
      "ience": 2225,
      "▁God.": 2226,
      "▁water": 2227,
      "ale": 2228,
      "als": 2229,
      "▁don't.": 2230,
      "▁Mc": 2231,
      "▁thinks": 2232,
      "▁happens": 2233,
      "▁Huh?": 2234,
      "-l": 2235,
      "cher": 2236,
      "▁wall": 2237,
      "▁Pr": 2238,
      "▁Par": 2239,
      "ie?": 2240,
      "ely.": 2241,
      "▁prof": 2242,
      "▁worked": 2243,
      "ot.": 2244,
      "▁better.": 2245,
      "▁disapp": 2246,
      "▁Those": 2247,
      "▁truth": 2248,
      "▁Nothing.": 2249,
      "▁pub": 2250,
      "▁Sam": 2251,
      "▁Max": 2252,
      "▁Didn't": 2253,
      "▁funny": 2254,
      "▁danger": 2255,
      "ia.": 2256,
      "ree.": 2257,
      "▁else.": 2258,
      "▁dire": 2259,
      "'s.": 2260,
      "ept": 2261,
      "▁great.": 2262,
      "▁died": 2263,
      "▁piece": 2264,
      "▁cor": 2265,
      "▁was.": 2266,
      "▁Who?": 2267,
      "▁priv": 2268,
      "▁Jeff": 2269,
      "▁boy.": 2270,
      "▁mis": 2271,
      "▁bother": 2272,
      "▁burn": 2273,
      "ense": 2274,
      "▁Col": 2275,
      "tle": 2276,
      "▁bag": 2277,
      "▁Mother": 2278,
      "bt": 2279,
      "ik": 2280,
      "▁playing": 2281,
      "▁and...": 2282,
      "▁attack": 2283,
      "ance.": 2284,
      "▁Cha": 2285,
      "▁spend": 2286,
      "eople": 2287,
      "RE": 2288,
      "▁oper": 2289,
      "▁Sha": 2290,
      "▁Hi.": 2291,
      "▁trans": 2292,
      "▁yeah.": 2293,
      "LL": 2294,
      "cent": 2295,
      "▁fe": 2296,
      "▁is?": 2297,
      "rap": 2298,
      "▁wrong.": 2299,
      "ty.": 2300,
      "▁mine": 2301,
      "tt": 2302,
      "ster": 2303,
      "▁key": 2304,
      "▁Big": 2305,
      "▁ru": 2306,
      "▁white": 2307,
      "▁enough.": 2308,
      "▁boys": 2309,
      "▁outside": 2310,
      "▁doin'": 2311,
      "▁us?": 2312,
      "cha": 2313,
      "▁Call": 2314,
      "▁star": 2315,
      "erve": 2316,
      "▁tot": 2317,
      "▁known": 2318,
      "▁outta": 2319,
      "▁idea.": 2320,
      "▁baby.": 2321,
      "▁Maj": 2322,
      "▁letter": 2323,
      "▁stick": 2324,
      "▁Gra": 2325,
      "▁smart": 2326,
      "▁shall": 2327,
      "▁OK": 2328,
      "spect": 2329,
      "ish.": 2330,
      "▁NO": 2331,
      "▁Nice": 2332,
      "▁something?": 2333,
      "ounds": 2334,
      "▁minutes.": 2335,
      "iddle": 2336,
      "▁David": 2337,
      "▁win": 2338,
      "ony": 2339,
      "ing...": 2340,
      "▁faul": 2341,
      "▁York": 2342,
      "▁ran": 2343,
      "ards": 2344,
      "▁late.": 2345,
      "ON": 2346,
      "a!": 2347,
      "reen": 2348,
      "▁Ind": 2349,
      "▁thirty": 2350,
      "but": 2351,
      "▁pur": 2352,
      "vern": 2353,
      "▁up!": 2354,
      "ball": 2355,
      "▁Think": 2356,
      "▁grow": 2357,
      "uc": 2358,
      "alm": 2359,
      "▁They'll": 2360,
      "ere": 2361,
      "int.": 2362,
      "▁felt": 2363,
      "▁No...": 2364,
      "▁Forget": 2365,
      "▁months": 2366,
      "▁respect": 2367,
      "AN": 2368,
      "▁treat": 2369,
      "ession": 2370,
      "▁return": 2371,
      "vis": 2372,
      "yp": 2373,
      "itche": 2374,
      "--I": 2375,
      "▁invol": 2376,
      "ft.": 2377,
      "▁o'": 2378,
      "▁think.": 2379,
      "▁problem.": 2380,
      "eneral": 2381,
      "▁ow": 2382,
      "▁Mister": 2383,
      "▁out?": 2384,
      "▁People": 2385,
      "▁cost": 2386,
      "▁first.": 2387,
      "▁turned": 2388,
      "▁that...": 2389,
      "oss": 2390,
      "▁clear": 2391,
      "▁apartment": 2392,
      "▁giving": 2393,
      "-d": 2394,
      "bor": 2395,
      "joy": 2396,
      "ific": 2397,
      "▁He'll": 2398,
      "ement": 2399,
      "▁crazy.": 2400,
      "▁Whatever": 2401,
      "▁short": 2402,
      "▁poor": 2403,
      "▁handle": 2404,
      "▁smell": 2405,
      "▁marry": 2406,
      "▁train": 2407,
      "▁Harry": 2408,
      "▁special": 2409,
      "▁dress": 2410,
      "▁Bud": 2411,
      "▁cannot": 2412,
      "▁class": 2413,
      "▁days.": 2414,
      "▁respon": 2415,
      "▁bullsh": 2416,
      "co": 2417,
      "▁C'm": 2418,
      "▁breat": 2419,
      "!!!": 2420,
      "▁personal": 2421,
      "▁laugh": 2422,
      "▁Bu": 2423,
      "▁drug": 2424,
      "bar": 2425,
      "ior": 2426,
      "ary.": 2427,
      "▁sto": 2428,
      "ctor.": 2429,
      "▁mine.": 2430,
      "▁Micha": 2431,
      "▁creat": 2432,
      "▁fair": 2433,
      "▁name.": 2434,
      "▁meant": 2435,
      "▁lie": 2436,
      "▁dear": 2437,
      "iver": 2438,
      "iam": 2439,
      "▁seeing": 2440,
      "▁leaving": 2441,
      "▁arm": 2442,
      "▁swear": 2443,
      "ny.": 2444,
      "▁to...": 2445,
      "▁caught": 2446,
      "▁fly": 2447,
      "▁lady": 2448,
      "▁Damn": 2449,
      "rop": 2450,
      "▁can't.": 2451,
      "▁THE": 2452,
      "man.": 2453,
      "▁takes": 2454,
      "oth": 2455,
      "▁You'd": 2456,
      "▁go?": 2457,
      "▁Three": 2458,
      "▁loved": 2459,
      "▁Mary": 2460,
      "com": 2461,
      "rat": 2462,
      "ze": 2463,
      "▁Put": 2464,
      "▁guess.": 2465,
      "▁true.": 2466,
      "▁Ann": 2467,
      "▁later.": 2468,
      "uri": 2469,
      "▁mach": 2470,
      "oof": 2471,
      "▁Lea": 2472,
      "▁conv": 2473,
      "ized": 2474,
      "ner": 2475,
      "▁lad": 2476,
      "oose": 2477,
      "▁week.": 2478,
      "▁lawy": 2479,
      "▁become": 2480,
      "▁alive": 2481,
      "▁tele": 2482,
      "▁ahead": 2483,
      "▁gentle": 2484,
      "▁Boy": 2485,
      "▁store": 2486,
      "▁sold": 2487,
      "▁los": 2488,
      "in'.": 2489,
      "▁cause": 2490,
      "...w": 2491,
      "oint": 2492,
      "▁mention": 2493,
      "▁deep": 2494,
      "ider": 2495,
      "▁Fine.": 2496,
      "▁'cause": 2497,
      "▁wrong?": 2498,
      "▁strong": 2499,
      "▁top": 2500,
      "▁hung": 2501,
      "▁kiss": 2502,
      "▁Sid": 2503,
      "▁assho": 2504,
      "▁Anything": 2505,
      "lo": 2506,
      "to": 2507,
      "▁Remember": 2508,
      "ead": 2509,
      "▁wast": 2510,
      "▁dark": 2511,
      "▁press": 2512,
      "▁paid": 2513,
      "elve": 2514,
      "▁I.": 2515,
      "▁bast": 2516,
      "▁bud": 2517,
      "▁he'd": 2518,
      "ided": 2519,
      "▁It'll": 2520,
      "▁quick": 2521,
      "▁news": 2522,
      "▁serv": 2523,
      "▁ups": 2524,
      "▁...I": 2525,
      "▁seven": 2526,
      "bil": 2527,
      "ex": 2528,
      "reed": 2529,
      "cks": 2530,
      "▁Make": 2531,
      "▁talked": 2532,
      "▁calling": 2533,
      "▁vo": 2534,
      "▁girls": 2535,
      "▁lives": 2536,
      "▁kick": 2537,
      "ident.": 2538,
      "reci": 2539,
      "▁cent": 2540,
      "▁drop": 2541,
      "A.": 2542,
      "cri": 2543,
      "▁situ": 2544,
      "▁honest": 2545,
      "▁aff": 2546,
      "▁Act": 2547,
      "▁can.": 2548,
      "bo": 2549,
      "▁sun": 2550,
      "▁fut": 2551,
      "▁pack": 2552,
      "▁Ha": 2553,
      "▁Ph": 2554,
      "▁here...": 2555,
      "▁cond": 2556,
      "▁given": 2557,
      "br": 2558,
      "▁3": 2559,
      "▁Nick": 2560,
      "▁Don": 2561,
      "irth": 2562,
      "▁President": 2563,
      "a's": 2564,
      "ats": 2565,
      "▁friends.": 2566,
      "l.": 2567,
      "vious": 2568,
      "gan": 2569,
      "▁op": 2570,
      "▁in?": 2571,
      "▁near": 2572,
      "ache": 2573,
      "▁bitch": 2574,
      "▁concern": 2575,
      "▁nam": 2576,
      "▁pract": 2577,
      "▁Hold": 2578,
      "lex": 2579,
      "▁talk.": 2580,
      "▁later": 2581,
      "-c": 2582,
      "h...": 2583,
      "ing!": 2584,
      "▁Try": 2585,
      "▁wonderful": 2586,
      "▁American": 2587,
      "▁hasn't": 2588,
      "▁entire": 2589,
      "▁Pleas": 2590,
      "▁but...": 2591,
      "▁ris": 2592,
      "▁Shit": 2593,
      "▁son.": 2594,
      "▁cry": 2595,
      "▁step": 2596,
      "▁ride": 2597,
      "ious.": 2598,
      "lin": 2599,
      "th.": 2600,
      "▁[": 2601,
      "▁we'd": 2602,
      "▁trut": 2603,
      "sible": 2604,
      "▁order": 2605,
      "▁tick": 2606,
      "▁hist": 2607,
      "▁invest": 2608,
      "roy": 2609,
      "▁Four": 2610,
      "il.": 2611,
      "▁foot": 2612,
      "▁kept": 2613,
      "▁stri": 2614,
      "▁him!": 2615,
      "pping": 2616,
      "▁stuff.": 2617,
      "▁school.": 2618,
      "▁interested": 2619,
      "-o": 2620,
      "ec": 2621,
      "▁ill": 2622,
      "▁we?": 2623,
      "▁Carl": 2624,
      "▁anywhere": 2625,
      "▁'C": 2626,
      "▁party": 2627,
      "▁weeks": 2628,
      "▁appreci": 2629,
      "be.": 2630,
      "▁middle": 2631,
      "ath.": 2632,
      "▁weird": 2633,
      "▁red": 2634,
      "▁fucked": 2635,
      "▁yester": 2636,
      "dy.": 2637,
      "▁bank": 2638,
      "▁nut": 2639,
      "stair": 2640,
      "ife": 2641,
      "ilt": 2642,
      "▁'em.": 2643,
      "▁sat": 2644,
      "▁Too": 2645,
      "▁that!": 2646,
      "▁knock": 2647,
      "ift": 2648,
      "▁Edd": 2649,
      "▁kid.": 2650,
      "▁Everybody": 2651,
      "▁wit": 2652,
      "▁fing": 2653,
      "▁Someone": 2654,
      "▁street": 2655,
      "▁liked": 2656,
      "CK": 2657,
      "go": 2658,
      "▁bri": 2659,
      "▁cur": 2660,
      "▁cab": 2661,
      "▁nice.": 2662,
      "al?": 2663,
      "▁anim": 2664,
      "tern": 2665,
      "▁except": 2666,
      "▁enjoy": 2667,
      "▁figured": 2668,
      "gu": 2669,
      "men": 2670,
      "▁born": 2671,
      "▁TV": 2672,
      "▁Sorry.": 2673,
      "▁for.": 2674,
      "▁Out": 2675,
      "▁they?": 2676,
      "▁coff": 2677,
      "▁music": 2678,
      "how": 2679,
      "▁Besides": 2680,
      "clock": 2681,
      "▁stor": 2682,
      "▁truck": 2683,
      "ING": 2684,
      "cess": 2685,
      "fer": 2686,
      "▁have.": 2687,
      "▁Father": 2688,
      "▁mark": 2689,
      "▁Sometimes": 2690,
      "solutely": 2691,
      "oun": 2692,
      "▁mouth": 2693,
      "▁it'll": 2694,
      "▁then?": 2695,
      "▁meeting": 2696,
      "ray": 2697,
      "▁deal.": 2698,
      "▁How'd": 2699,
      "▁eng": 2700,
      "▁Engl": 2701,
      "iol": 2702,
      "▁fear": 2703,
      "▁Fred": 2704,
      "▁box": 2705,
      "▁darl": 2706,
      "▁Ho": 2707,
      "ley": 2708,
      "▁lucky": 2709,
      "▁either.": 2710,
      "▁parents": 2711,
      "▁die.": 2712,
      "▁account": 2713,
      "ene": 2714,
      "▁jail": 2715,
      "▁worried": 2716,
      "ular": 2717,
      "▁sometimes": 2718,
      "▁year.": 2719,
      "ring": 2720,
      "erry": 2721,
      "ational": 2722,
      "▁Yes?": 2723,
      "▁again?": 2724,
      "▁Should": 2725,
      "▁possible": 2726,
      "-m": 2727,
      "▁really.": 2728,
      "▁What'd": 2729,
      "▁Ray": 2730,
      "ation?": 2731,
      "▁gone.": 2732,
      "▁slow": 2733,
      "▁sounds": 2734,
      "▁involved": 2735,
      "▁birth": 2736,
      "an?": 2737,
      "▁War": 2738,
      "edd": 2739,
      "ics": 2740,
      "nect": 2741,
      "vent": 2742,
      "▁sitting": 2743,
      "▁o'clock": 2744,
      "▁mot": 2745,
      "▁done.": 2746,
      "▁bust": 2747,
      "▁Bea": 2748,
      "ury": 2749,
      "▁Doctor": 2750,
      "arch": 2751,
      "▁this...": 2752,
      "▁Rus": 2753,
      "ood.": 2754,
      "▁suit": 2755,
      "▁Eve": 2756,
      "</i>": 2757,
      "▁remem": 2758,
      "▁Uh-hu": 2759,
      "-five": 2760,
      "▁promise": 2761,
      "▁dinner": 2762,
      "-I": 2763,
      "a...": 2764,
      "uring": 2765,
      "▁dev": 2766,
      "▁19": 2767,
      "that": 2768,
      "read": 2769,
      "▁pea": 2770,
      "▁Dick": 2771,
      "▁belong": 2772,
      "▁father.": 2773,
      "▁esc": 2774,
      "arth": 2775,
      "▁Joe": 2776,
      "ible": 2777,
      "▁4": 2778,
      "▁bath": 2779,
      "▁piss": 2780,
      "▁head.": 2781,
      "ime.": 2782,
      "▁yours": 2783,
      "▁Em": 2784,
      "▁afterno": 2785,
      "▁Fl": 2786,
      "ose.": 2787,
      "ately": 2788,
      "▁Ste": 2789,
      "▁night?": 2790,
      "▁realize": 2791,
      "▁Here's": 2792,
      "▁brain": 2793,
      "▁doubt": 2794,
      "ition.": 2795,
      "▁cig": 2796,
      "▁More": 2797,
      "▁mean.": 2798,
      "▁needed": 2799,
      "▁kinda": 2800,
      "▁chick": 2801,
      "▁tough": 2802,
      "▁to?": 2803,
      "▁Six": 2804,
      "▁form": 2805,
      "iff": 2806,
      "▁wife.": 2807,
      "ches": 2808,
      "▁Daddy": 2809,
      "You": 2810,
      "iat": 2811,
      "▁lay": 2812,
      "▁inf": 2813,
      "▁out!": 2814,
      "▁works": 2815,
      "ned": 2816,
      "▁": 2817,
      "▁allow": 2818,
      "▁man?": 2819,
      "▁love.": 2820,
      "▁said.": 2821,
      "▁happened.": 2822,
      "▁<i>": 2823,
      "-p": 2824,
      "▁!": 2825,
      "ots": 2826,
      "▁oh": 2827,
      "▁Alex": 2828,
      "▁Stay": 2829,
      "▁visit": 2830,
      "??": 2831,
      "ber.": 2832,
      "yn": 2833,
      "▁door.": 2834,
      "▁Mad": 2835,
      "▁sol": 2836,
      "els": 2837,
      "▁movie": 2838,
      "▁C'mon": 2839,
      "ov": 2840,
      "ones": 2841,
      "est.": 2842,
      "▁trouble.": 2843,
      "ium": 2844,
      "▁": 2845,
      "▁ble": 2846,
      "▁cat": 2847,
      "▁Gl": 2848,
      "oney": 2849,
      "▁finish": 2850,
      "▁ed": 2851,
      "imin": 2852,
      "▁Co": 2853,
      "▁stat": 2854,
      "▁going.": 2855,
      "▁proper": 2856,
      "▁time?": 2857,
      "▁Looks": 2858,
      "▁arrest": 2859,
      "▁terrible": 2860,
      "▁completely": 2861,
      "▁destroy": 2862,
      "-th": 2863,
      "▁..": 2864,
      "▁nerv": 2865,
      "▁super": 2866,
      "▁Perhaps": 2867,
      "▁dig": 2868,
      "oop": 2869,
      "▁story.": 2870,
      "▁unless": 2871,
      "▁chang": 2872,
      "OR": 2873,
      "▁z": 2874,
      "▁tre": 2875,
      "▁cir": 2876,
      "▁Bel": 2877,
      "▁neigh": 2878,
      "▁Ell": 2879,
      "▁she?": 2880,
      "▁loc": 2881,
      "▁div": 2882,
      "▁eye": 2883,
      "▁window": 2884,
      "▁likes": 2885,
      "bly": 2886,
      "port": 2887,
      "▁tast": 2888,
      "▁bought": 2889,
      "▁ground": 2890,
      "or?": 2891,
      "▁Want": 2892,
      "▁sudd": 2893,
      "▁back?": 2894,
      "▁Yeah...": 2895,
      "▁picked": 2896,
      "▁town.": 2897,
      "▁teach": 2898,
      "rect": 2899,
      "▁see?": 2900,
      "▁one?": 2901,
      "▁self": 2902,
      "ations.": 2903,
      "▁finished": 2904,
      "ities": 2905,
      "▁feet": 2906,
      "▁opp": 2907,
      "▁Mac": 2908,
      "▁nothin'": 2909,
      "▁jump": 2910,
      "▁Lord": 2911,
      "▁dem": 2912,
      "▁certainly": 2913,
      "▁Mil": 2914,
      "▁killing": 2915,
      "▁cover": 2916,
      "▁screw": 2917,
      "▁point.": 2918,
      "▁question.": 2919,
      "▁accident": 2920,
      "▁draw": 2921,
      "▁Sen": 2922,
      "▁Sim": 2923,
      "ama": 2924,
      "▁alive.": 2925,
      "▁long.": 2926,
      "▁comput": 2927,
      "▁sleep.": 2928,
      "bye": 2929,
      "▁Walter": 2930,
      "re.": 2931,
      "▁court": 2932,
      "▁Anyway": 2933,
      "▁Christm": 2934,
      "▁Sec": 2935,
      "▁though.": 2936,
      "▁public": 2937,
      "▁appreciate": 2938,
      "EN": 2939,
      "full": 2940,
      "▁reach": 2941,
      "▁Cal": 2942,
      "▁General": 2943,
      "▁rul": 2944,
      "bert": 2945,
      "▁else?": 2946,
      "▁Russi": 2947,
      "in?": 2948,
      "▁Sch": 2949,
      "idence": 2950,
      "▁ear": 2951,
      "▁suck": 2952,
      "ers?": 2953,
      "▁finally": 2954,
      "▁prep": 2955,
      "▁watching": 2956,
      "▁truth.": 2957,
      "aven": 2958,
      "▁bed.": 2959,
      "▁city": 2960,
      "amer": 2961,
      "aster": 2962,
      "▁prison": 2963,
      "▁impress": 2964,
      "U>": 2965,
      "ated.": 2966,
      "▁gotten": 2967,
      "▁moving": 2968,
      "▁adm": 2969,
      "▁difference": 2970,
      "rid": 2971,
      "tin'": 2972,
      "▁pop": 2973,
      "alt": 2974,
      "▁Bo": 2975,
      "▁'b": 2976,
      "▁broke": 2977,
      "▁owe": 2978,
      "▁Please.": 2979,
      "z.": 2980,
      "▁corn": 2981,
      "ass.": 2982,
      "▁steal": 2983,
      "▁yours.": 2984,
      "lfriend": 2985,
      "▁boat": 2986,
      "▁strange": 2987,
      "▁Michael": 2988,
      "AR": 2989,
      "les.": 2990,
      "▁soul": 2991,
      "▁don": 2992,
      "▁bird": 2993,
      "▁weap": 2994,
      "▁Norm": 2995,
      "▁gold": 2996,
      "tact": 2997,
      "ggest": 2998,
      "▁hours.": 2999,
      "▁join": 3000,
      "▁coffee": 3001,
      "T.": 3002,
      "ving.": 3003,
      "rey": 3004,
      "▁threat": 3005,
      "arter": 3006,
      "▁requ": 3007,
      "▁Actually": 3008,
      "▁main": 3009,
      "▁somethin'": 3010,
      "▁while.": 3011,
      "-n": 3012,
      "▁dumb": 3013,
      "▁numb": 3014,
      "▁Son": 3015,
      "unn": 3016,
      "ress.": 3017,
      "▁words": 3018,
      "▁dollars.": 3019,
      "▁private": 3020,
      "▁5": 3021,
      "▁mod": 3022,
      "▁fol": 3023,
      "▁suggest": 3024,
      "▁twelve": 3025,
      "▁quit": 3026,
      "▁decided": 3027,
      "▁easy.": 3028,
      "▁Uh-huh.": 3029,
      "ele": 3030,
      "ron": 3031,
      "▁ve": 3032,
      "▁pen": 3033,
      "▁once.": 3034,
      "▁Last": 3035,
      "urs": 3036,
      "▁Ric": 3037,
      "▁road": 3038,
      "▁uh...": 3039,
      "ming": 3040,
      "view": 3041,
      "▁Ser": 3042,
      "▁Fren": 3043,
      "art.": 3044,
      "▁didn't.": 3045,
      "▁prove": 3046,
      "▁other.": 3047,
      "▁discuss": 3048,
      "af": 3049,
      "know": 3050,
      "oid": 3051,
      "use": 3052,
      "▁wake": 3053,
      "itive": 3054,
      "▁Must": 3055,
      "▁Lie": 3056,
      "▁mother.": 3057,
      "▁commun": 3058,
      "▁fifteen": 3059,
      "und": 3060,
      "▁I": 3061,
      "▁dam": 3062,
      "▁date": 3063,
      "▁bomb": 3064,
      "▁fill": 3065,
      "▁fail": 3066,
      "▁ass.": 3067,
      "gram": 3068,
      "fuck": 3069,
      "ian.": 3070,
      "ism": 3071,
      "▁nine": 3072,
      "ed...": 3073,
      "ature": 3074,
      "▁Aw": 3075,
      "▁state": 3076,
      "ffic": 3077,
      "▁val": 3078,
      "cially": 3079,
      "▁lived": 3080,
      "ogn": 3081,
      "▁daughter": 3082,
      "▁radio": 3083,
      "▁cross": 3084,
      "▁lim": 3085,
      "▁of.": 3086,
      "riff": 3087,
      "▁with.": 3088,
      "▁Pat": 3089,
      "▁glass": 3090,
      "▁thanks.": 3091,
      "▁apolog": 3092,
      "▁family.": 3093,
      "es...": 3094,
      "urity": 3095,
      "▁Rose": 3096,
      "▁hadn't": 3097,
      "▁wrote": 3098,
      "▁named": 3099,
      "▁sudden": 3100,
      "ion?": 3101,
      "aint": 3102,
      "ective": 3103,
      "▁moved": 3104,
      "▁roll": 3105,
      "▁money?": 3106,
      "▁girlfriend": 3107,
      "▁across": 3108,
      "▁surv": 3109,
      "ency": 3110,
      "hen": 3111,
      "▁sake": 3112,
      "▁mor": 3113,
      "▁bill": 3114,
      "▁cell": 3115,
      "ask": 3116,
      "▁is...": 3117,
      "▁contact": 3118,
      "▁plane": 3119,
      "ney": 3120,
      "▁norm": 3121,
      "▁on!": 3122,
      "ored": 3123,
      "▁saved": 3124,
      "▁thanks": 3125,
      "▁Aren't": 3126,
      "▁honey": 3127,
      "▁Wor": 3128,
      "▁be?": 3129,
      "▁Mer": 3130,
      "▁forty": 3131,
      "▁Still": 3132,
      "▁idi": 3133,
      "▁phot": 3134,
      "▁beginn": 3135,
      "selves": 3136,
      "aus": 3137,
      "▁card": 3138,
      "▁stuck": 3139,
      "▁Jul": 3140,
      "▁just...": 3141,
      "arett": 3142,
      "▁vict": 3143,
      "▁Where?": 3144,
      "▁changed": 3145,
      "▁Somebody": 3146,
      "▁hotel": 3147,
      "▁'bout": 3148,
      "▁mir": 3149,
      "▁Jun": 3150,
      "urg": 3151,
      "▁King": 3152,
      "▁sure?": 3153,
      "▁company": 3154,
      "▁totally": 3155,
      "▁Leave": 3156,
      ".A.": 3157,
      "▁tem": 3158,
      "▁gar": 3159,
      "uten": 3160,
      "▁Cor": 3161,
      "own.": 3162,
      "ists": 3163,
      "▁man's": 3164,
      "▁Godd": 3165,
      "▁putting": 3166,
      "▁accept": 3167,
      "▁Exact": 3168,
      "▁brok": 3169,
      "▁none": 3170,
      "ety": 3171,
      "▁GO": 3172,
      "ume": 3173,
      "▁prop": 3174,
      "▁left.": 3175,
      "▁diff": 3176,
      "▁William": 3177,
      "▁case.": 3178,
      "▁simple": 3179,
      "-up": 3180,
      "my.": 3181,
      "▁tor": 3182,
      "▁field": 3183,
      "▁ones": 3184,
      "▁jud": 3185,
      "▁own.": 3186,
      "▁ahead.": 3187,
      "friend": 3188,
      "▁bre": 3189,
      "▁Sal": 3190,
      "▁Holl": 3191,
      "▁spl": 3192,
      "▁stopped": 3193,
      "yl": 3194,
      "▁pow": 3195,
      "▁worse": 3196,
      "▁they've": 3197,
      "hys": 3198,
      "▁Black": 3199,
      "▁present": 3200,
      "S.": 3201,
      "xic": 3202,
      "et?": 3203,
      "▁hero": 3204,
      "▁Rob": 3205,
      "▁matter?": 3206,
      "▁trip": 3207,
      "▁honey.": 3208,
      "lcome": 3209,
      "ness.": 3210,
      "head": 3211,
      "▁Sk": 3212,
      "▁Hon": 3213,
      "▁like.": 3214,
      "▁paper": 3215,
      "▁information": 3216,
      "▁er": 3217,
      "▁ban": 3218,
      "▁Ya": 3219,
      "▁Sus": 3220,
      "amb": 3221,
      "▁Love": 3222,
      "▁offer": 3223,
      "▁gives": 3224,
      "▁Once": 3225,
      "▁travel": 3226,
      "▁standing": 3227,
      "▁relations": 3228,
      "▁bunch": 3229,
      "▁Most": 3230,
      "urch": 3231,
      "▁Five": 3232,
      "▁connect": 3233,
      "▁Yes...": 3234,
      "▁arran": 3235,
      "▁woman.": 3236,
      "----------------": 3237,
      "▁hospital": 3238,
      "ants": 3239,
      "▁Were": 3240,
      "▁they'd": 3241,
      "▁appro": 3242,
      "▁cops": 3243,
      "▁WH": 3244,
      "▁Watch": 3245,
      "▁Mike": 3246,
      "▁Help": 3247,
      "▁excuse": 3248,
      "▁recogn": 3249,
      "▁rich": 3250,
      "▁forgot": 3251,
      "▁colle": 3252,
      "▁ma'": 3253,
      "▁direct": 3254,
      "▁wedd": 3255,
      "▁cow": 3256,
      "▁pus": 3257,
      "▁god": 3258,
      "▁Jew": 3259,
      "▁comfort": 3260,
      "▁enem": 3261,
      "▁longer": 3262,
      "▁wearing": 3263,
      "▁imagine": 3264,
      "▁fat": 3265,
      "▁face.": 3266,
      "▁Cra": 3267,
      "▁produ": 3268,
      "▁matter.": 3269,
      "▁Everyone": 3270,
      "▁Charlie": 3271,
      "▁English": 3272,
      "▁French": 3273,
      "▁av": 3274,
      "▁occ": 3275,
      "▁Back": 3276,
      "▁Ger": 3277,
      "urb": 3278,
      "▁worry.": 3279,
      "▁summ": 3280,
      "▁one's": 3281,
      "▁manag": 3282,
      "ission": 3283,
      "▁miles": 3284,
      "▁equ": 3285,
      "▁Bull": 3286,
      "ode": 3287,
      "▁times.": 3288,
      "▁Before": 3289,
      "▁Chief": 3290,
      "▁Hello.": 3291,
      "▁driving": 3292,
      "▁drink.": 3293,
      "oon": 3294,
      "ues": 3295,
      "we": 3296,
      "▁gen": 3297,
      "key": 3298,
      "▁like?": 3299,
      "orth": 3300,
      "▁viol": 3301,
      "▁quiet": 3302,
      "▁future": 3303,
      "▁difficul": 3304,
      "pe.": 3305,
      "▁dance": 3306,
      "ite.": 3307,
      "▁cook": 3308,
      "▁game.": 3309,
      "▁fort": 3310,
      "and.": 3311,
      "▁dangerous": 3312,
      "!?": 3313,
      "aith": 3314,
      "▁IN": 3315,
      "▁lar": 3316,
      "iment": 3317,
      "▁Cle": 3318,
      "▁neg": 3319,
      "▁happen.": 3320,
      "▁appear": 3321,
      "▁obvious": 3322,
      "nes": 3323,
      "ham": 3324,
      "▁hid": 3325,
      "▁does.": 3326,
      "▁plac": 3327,
      "ude.": 3328,
      "▁hardly": 3329,
      "▁Jack.": 3330,
      "▁escap": 3331,
      "▁song": 3332,
      "ork.": 3333,
      "▁Sounds": 3334,
      "▁Del": 3335,
      "▁asleep": 3336,
      "▁look.": 3337,
      "▁drunk": 3338,
      "▁Johnny": 3339,
      "▁consider": 3340,
      "night": 3341,
      "o!": 3342,
      "▁bat": 3343,
      "▁lunch": 3344,
      "▁third": 3345,
      "▁death.": 3346,
      "▁They've": 3347,
      "▁brother.": 3348,
      "▁cigarett": 3349,
      "IT": 3350,
      "ina": 3351,
      "▁Dad.": 3352,
      "▁Red": 3353,
      "ire.": 3354,
      "▁sir?": 3355,
      "▁care.": 3356,
      "▁missed": 3357,
      "▁White": 3358,
      "ET": 3359,
      "up.": 3360,
      "eder": 3361,
      "▁Pop": 3362,
      "▁suspect": 3363,
      "▁Yes!": 3364,
      "▁wait.": 3365,
      "▁Peter": 3366,
      "uke": 3367,
      "▁sill": 3368,
      "▁pig": 3369,
      "▁there!": 3370,
      "▁man!": 3371,
      "▁team": 3372,
      "▁beautiful.": 3373,
      "▁single": 3374,
      "▁risk": 3375,
      "▁witness": 3376,
      "▁divor": 3377,
      "inite": 3378,
      "▁natur": 3379,
      "▁govern": 3380,
      "▁him...": 3381,
      "</u>?": 3382,
      "▁others": 3383,
      "▁why?": 3384,
      "pens": 3385,
      "▁different.": 3386,
      "▁obs": 3387,
      "▁tonight?": 3388,
      "▁Grand": 3389,
      "▁maj": 3390,
      "ma": 3391,
      "ane.": 3392,
      "▁fur": 3393,
      "▁fired": 3394,
      "▁ant": 3395,
      "aud": 3396,
      "▁come.": 3397,
      "▁anything?": 3398,
      "▁post": 3399,
      "▁party.": 3400,
      "▁trick": 3401,
      "▁Doesn't": 3402,
      "▁extra": 3403,
      "▁married.": 3404,
      "ey.": 3405,
      "gue": 3406,
      "uel": 3407,
      "▁Ter": 3408,
      "▁hook": 3409,
      "ute": 3410,
      "▁early": 3411,
      "▁Cong": 3412,
      "▁What're": 3413,
      "▁load": 3414,
      "▁guys.": 3415,
      "▁block": 3416,
      "▁admit": 3417,
      "▁fellow": 3418,
      "▁Lieuten": 3419,
      "IS": 3420,
      "▁aut": 3421,
      "▁San": 3422,
      "▁James": 3423,
      "▁club": 3424,
      "▁boyfriend": 3425,
      "▁impos": 3426,
      "▁relax": 3427,
      "▁elect": 3428,
      "▁ridicul": 3429,
      "▁bullshit": 3430,
      "▁neighbor": 3431,
      "-a": 3432,
      "▁Tra": 3433,
      "▁weak": 3434,
      "▁Mag": 3435,
      "▁Po": 3436,
      "▁loves": 3437,
      "▁lot.": 3438,
      "▁understand?": 3439,
      "fast": 3440,
      "rit": 3441,
      "uce": 3442,
      "▁shar": 3443,
      "▁cred": 3444,
      "▁camp": 3445,
      "▁rent": 3446,
      "▁Star": 3447,
      "▁guy's": 3448,
      "▁chance.": 3449,
      "ivil": 3450,
      "cum": 3451,
      "▁y'": 3452,
      "▁park": 3453,
      "imme": 3454,
      "▁Dep": 3455,
      "ady.": 3456,
      "▁ste": 3457,
      "▁now!": 3458,
      "▁usually": 3459,
      "▁spent": 3460,
      "▁amaz": 3461,
      "▁blame": 3462,
      "ple.": 3463,
      "▁pray": 3464,
      "▁investig": 3465,
      "▁cust": 3466,
      "▁hol": 3467,
      "▁Since": 3468,
      "▁Hey.": 3469,
      "▁absolutely": 3470,
      "ander": 3471,
      "▁tells": 3472,
      "▁exam": 3473,
      "ruct": 3474,
      "▁bastard": 3475,
      "▁sil": 3476,
      "ve.": 3477,
      "▁Ain't": 3478,
      "▁Bab": 3479,
      "urt": 3480,
      "▁there...": 3481,
      "▁office.": 3482,
      "▁Kill": 3483,
      "ice?": 3484,
      "▁God!": 3485,
      "▁kids.": 3486,
      "▁leave.": 3487,
      "▁staying": 3488,
      "▁questions": 3489,
      "▁instead": 3490,
      "▁Better": 3491,
      "re": 3492,
      "▁ide": 3493,
      "▁wild": 3494,
      "▁lying": 3495,
      "▁phys": 3496,
      "▁host": 3497,
      "▁Has": 3498,
      "▁Hmm": 3499,
      "▁ann": 3500,
      "▁from?": 3501,
      "▁two.": 3502,
      "▁John.": 3503,
      "▁sens": 3504,
      "▁bathroom": 3505,
      "▁Christmas": 3506,
      "what": 3507,
      "▁danc": 3508,
      "▁grou": 3509,
      "▁West": 3510,
      "▁inno": 3511,
      "▁beha": 3512,
      "▁Dor": 3513,
      "▁jack": 3514,
      "▁space": 3515,
      "▁calls": 3516,
      "▁rock": 3517,
      "▁level": 3518,
      "▁remind": 3519,
      "▁partn": 3520,
      "▁busy": 3521,
      "▁perhaps": 3522,
      "▁contract": 3523,
      "▁fault": 3524,
      "ires": 3525,
      "ls": 3526,
      "▁so...": 3527,
      "▁ring": 3528,
      "▁she'll": 3529,
      "ages": 3530,
      "▁happy.": 3531,
      "▁polit": 3532,
      "▁correct": 3533,
      "ugg": 3534,
      "▁typ": 3535,
      "ater": 3536,
      "red.": 3537,
      "▁too?": 3538,
      "▁weekend": 3539,
      "▁collect": 3540,
      "▁clothes": 3541,
      "▁remember.": 3542,
      "it's": 3543,
      "▁prou": 3544,
      "ions.": 3545,
      "▁Pol": 3546,
      "▁herself": 3547,
      "▁How?": 3548,
      "▁eyes.": 3549,
      "uthor": 3550,
      "'S": 3551,
      "kes": 3552,
      "well": 3553,
      "ened": 3554,
      "▁hide": 3555,
      "▁Gee": 3556,
      "▁using": 3557,
      "um.": 3558,
      "▁Doc": 3559,
      "▁remember?": 3560,
      "▁Ask": 3561,
      "▁promised": 3562,
      "▁heart.": 3563,
      "▁charge": 3564,
      "▁upset": 3565,
      "▁ir": 3566,
      "▁lab": 3567,
      "▁Sit": 3568,
      "irm": 3569,
      "▁vac": 3570,
      "place": 3571,
      "▁flow": 3572,
      "▁decis": 3573,
      "▁message": 3574,
      "▁film": 3575,
      "e!": 3576,
      "▁side.": 3577,
      "▁heav": 3578,
      "▁egg": 3579,
      "▁Det": 3580,
      "▁Lau": 3581,
      "rodu": 3582,
      "ters": 3583,
      "▁Er": 3584,
      "▁whether": 3585,
      "▁Thom": 3586,
      "ittle.": 3587,
      "▁talkin'": 3588,
      "▁bott": 3589,
      "▁Twenty": 3590,
      "attle": 3591,
      "BI": 3592,
      "ES": 3593,
      "OM": 3594,
      "ino": 3595,
      "▁bow": 3596,
      "ann": 3597,
      "▁fright": 3598,
      "▁starting": 3599,
      "▁track": 3600,
      "▁pretend": 3601,
      "▁Mexic": 3602,
      "i?": 3603,
      "just": 3604,
      "oud": 3605,
      "▁Sl": 3606,
      "▁earl": 3607,
      "host": 3608,
      "▁Frid": 3609,
      "unk.": 3610,
      "▁nose": 3611,
      "▁Sheriff": 3612,
      "ploy": 3613,
      "▁keeps": 3614,
      "▁serious.": 3615,
      "▁Jesus.": 3616,
      "▁Adm": 3617,
      "-in": 3618,
      "mb": 3619,
      "yle": 3620,
      "▁low": 3621,
      "▁list": 3622,
      "▁Ay": 3623,
      "▁island": 3624,
      "▁Rel": 3625,
      "▁now...": 3626,
      "izz": 3627,
      "▁arri": 3628,
      "▁contin": 3629,
      "▁months.": 3630,
      "▁Uncle": 3631,
      "▁murder": 3632,
      "▁today?": 3633,
      "▁machine": 3634,
      "▁ice": 3635,
      "▁pill": 3636,
      "▁Turn": 3637,
      "▁Jud": 3638,
      "▁thing?": 3639,
      "▁spir": 3640,
      "▁Hey!": 3641,
      "▁board": 3642,
      "▁Uh...": 3643,
      "x.": 3644,
      "atic": 3645,
      "ason.": 3646,
      "▁vir": 3647,
      "▁Ang": 3648,
      "▁God's": 3649,
      "rank": 3650,
      "▁patient": 3651,
      "▁bucks": 3652,
      "▁condition": 3653,
      "UT": 3654,
      "ev": 3655,
      "▁pal": 3656,
      "ed!": 3657,
      "▁stole": 3658,
      "▁FBI": 3659,
      "ility": 3660,
      "▁evening": 3661,
      "▁careful": 3662,
      "▁particul": 3663,
      "▁Okay?": 3664,
      "▁emp": 3665,
      "▁wondering": 3666,
      "ountain": 3667,
      "▁depend": 3668,
      "▁'Cause": 3669,
      "▁crew": 3670,
      "ves.": 3671,
      "▁pe": 3672,
      "▁Me?": 3673,
      "ify": 3674,
      "▁call.": 3675,
      "▁father's": 3676,
      "▁crimin": 3677,
      "▁awful": 3678,
      "▁Hello?": 3679,
      "▁sick.": 3680,
      "fully": 3681,
      "e...": 3682,
      "gin": 3683,
      "ror": 3684,
      "▁sad": 3685,
      "▁gener": 3686,
      "om.": 3687,
      "▁iss": 3688,
      "▁this!": 3689,
      "▁Little": 3690,
      "▁Fif": 3691,
      "▁Where'd": 3692,
      "▁walking": 3693,
      "▁Franc": 3694,
      "▁anyway?": 3695,
      "▁honor": 3696,
      "▁himself.": 3697,
      "▁alright.": 3698,
      "▁Buddy": 3699,
      "▁situation": 3700,
      "ris": 3701,
      "▁'t": 3702,
      "▁base": 3703,
      "▁curi": 3704,
      "otion": 3705,
      "▁odd": 3706,
      "arm": 3707,
      "▁Hard": 3708,
      "▁eh?": 3709,
      "▁notic": 3710,
      "▁soon.": 3711,
      "▁round": 3712,
      "▁coun": 3713,
      "▁attract": 3714,
      "▁country.": 3715,
      "▁forgive": 3716,
      "▁Great.": 3717,
      "▁Goddamn": 3718,
      "ffe": 3719,
      "h!": 3720,
      "let": 3721,
      "ll.": 3722,
      "▁Tri": 3723,
      "▁Talk": 3724,
      "▁Mo": 3725,
      "chn": 3726,
      "▁Jan": 3727,
      "▁Pret": 3728,
      "▁organ": 3729,
      "▁Under": 3730,
      "ies?": 3731,
      "▁hand.": 3732,
      "The": 3733,
      "aff": 3734,
      "ien": 3735,
      "iar": 3736,
      "rass": 3737,
      "ying.": 3738,
      "▁und": 3739,
      "ade.": 3740,
      "▁Chan": 3741,
      "▁necess": 3742,
      "▁Rick": 3743,
      "▁plenty": 3744,
      "are.": 3745,
      "▁blind": 3746,
      "cious": 3747,
      "▁Tomorrow": 3748,
      "▁yet?": 3749,
      "▁building": 3750,
      "▁floor": 3751,
      "aur": 3752,
      "ral": 3753,
      "ya": 3754,
      "▁camer": 3755,
      "ified": 3756,
      "▁Jam": 3757,
      "▁Ever": 3758,
      "▁program": 3759,
      "▁built": 3760,
      "▁crack": 3761,
      "▁share": 3762,
      "▁position": 3763,
      "▁breakfast": 3764,
      "▁fighting": 3765,
      "▁excit": 3766,
      "▁peace": 3767,
      "AA": 3768,
      "ging": 3769,
      "work": 3770,
      "▁est": 3771,
      "▁tax": 3772,
      "▁IT": 3773,
      "▁men.": 3774,
      "asy": 3775,
      "imb": 3776,
      "▁Mor": 3777,
      "▁Jake": 3778,
      "▁Pri": 3779,
      "▁view": 3780,
      "▁Stre": 3781,
      "▁guy?": 3782,
      "</u>!": 3783,
      "hard": 3784,
      "▁hour.": 3785,
      "▁phone.": 3786,
      "velop": 3787,
      "▁pulled": 3788,
      "▁animal": 3789,
      "VE": 3790,
      "▁$": 3791,
      "▁7": 3792,
      "▁civil": 3793,
      "▁Ton": 3794,
      "▁upstair": 3795,
      "▁worst": 3796,
      "olf": 3797,
      "erson": 3798,
      "▁blue": 3799,
      "▁smok": 3800,
      "▁mind?": 3801,
      "▁walked": 3802,
      "▁Frank.": 3803,
      "▁holding": 3804,
      "▁learned": 3805,
      "▁mistake": 3806,
      "▁yesterday": 3807,
      "▁Holy": 3808,
      "▁Believe": 3809,
      "'.": 3810,
      "het": 3811,
      "▁cast": 3812,
      "isf": 3813,
      "▁Ted": 3814,
      "▁Hen": 3815,
      "aly": 3816,
      "ry?": 3817,
      "▁Up": 3818,
      "▁scare": 3819,
      "▁security": 3820,
      "▁gun.": 3821,
      "▁pleasure": 3822,
      "▁possible.": 3823,
      "▁Jimmy": 3824,
      "▁Eddie": 3825,
      "-ha": 3826,
      "aim": 3827,
      "nie": 3828,
      "over": 3829,
      "▁dat": 3830,
      "▁dump": 3831,
      "erc": 3832,
      "ishing": 3833,
      "▁TO": 3834,
      "▁Honey": 3835,
      "▁Fine": 3836,
      "▁intell": 3837,
      "▁person.": 3838,
      "▁Washing": 3839,
      "▁Probably": 3840,
      "▁daddy": 3841,
      "▁victim": 3842,
      "initely": 3843,
      "UCK": 3844,
      "i-": 3845,
      "zen": 3846,
      "▁table": 3847,
      "▁teet": 3848,
      "▁sea": 3849,
      "▁freak": 3850,
      "es!": 3851,
      "▁Thing": 3852,
      "▁Time": 3853,
      "▁guest": 3854,
      "▁Um": 3855,
      "▁lots": 3856,
      "▁acting": 3857,
      "▁funny.": 3858,
      "▁word.": 3859,
      "▁detail": 3860,
      "▁opin": 3861,
      "▁nervous": 3862,
      "D.": 3863,
      "con": 3864,
      "son.": 3865,
      "▁tal": 3866,
      "▁tear": 3867,
      "▁fac": 3868,
      "▁lun": 3869,
      "ets.": 3870,
      "▁Hall": 3871,
      "▁High": 3872,
      "▁Long": 3873,
      "▁neck": 3874,
      "▁succ": 3875,
      "▁Eight": 3876,
      "▁Oh...": 3877,
      "▁search": 3878,
      "▁coming.": 3879,
      "▁feels": 3880,
      "▁pock": 3881,
      "▁change.": 3882,
      "▁through.": 3883,
      "▁fun.": 3884,
      "▁polic": 3885,
      "▁embar": 3886,
      "▁interesting": 3887,
      "▁second.": 3888,
      "▁Prof": 3889,
      "▁Colone": 3890,
      "▁proud": 3891,
      "cul": 3892,
      "gn": 3893,
      "▁mix": 3894,
      "▁fit": 3895,
      "▁no!": 3896,
      "▁guard": 3897,
      "▁mean...": 3898,
      "ortun": 3899,
      "▁Vict": 3900,
      "▁Another": 3901,
      "▁perform": 3902,
      "▁place?": 3903,
      "▁seemed": 3904,
      "▁subject": 3905,
      "What": 3906,
      "por": 3907,
      "▁sle": 3908,
      "▁dut": 3909,
      "▁gift": 3910,
      "▁thr": 3911,
      "▁of...": 3912,
      "▁App": 3913,
      "imes.": 3914,
      "▁Cas": 3915,
      "▁station": 3916,
      "▁was...": 3917,
      "used": 3918,
      "</u>...": 3919,
      "bye.": 3920,
      "▁fast.": 3921,
      "▁Guess": 3922,
      "▁mistake.": 3923,
      "▁radi": 3924,
      "ford": 3925,
      "yond": 3926,
      "▁6": 3927,
      "ining": 3928,
      "▁Ten": 3929,
      "▁Tod": 3930,
      "ste": 3931,
      "▁hun": 3932,
      "▁Sar": 3933,
      "▁Hal": 3934,
      "▁Mill": 3935,
      "▁Mmm": 3936,
      "▁know!": 3937,
      "▁rece": 3938,
      "▁here's": 3939,
      "▁so?": 3940,
      "▁convers": 3941,
      "aren": 3942,
      "▁rob": 3943,
      "▁cheap": 3944,
      "▁Maybe.": 3945,
      "▁Scott": 3946,
      "▁Louis": 3947,
      "▁feed": 3948,
      "-se": 3949,
      "ped": 3950,
      "▁8": 3951,
      "▁during": 3952,
      "▁nin": 3953,
      "▁Te": 3954,
      "▁Gre": 3955,
      "▁Fin": 3956,
      "▁Find": 3957,
      "▁scream": 3958,
      "▁swim": 3959,
      "▁died.": 3960,
      "▁Except": 3961,
      "▁charact": 3962,
      "▁important.": 3963,
      "▁surprise": 3964,
      "▁marriage": 3965,
      "▁asshole": 3966,
      "▁Phil": 3967,
      "▁college": 3968,
      "ffect": 3969,
      "lt": 3970,
      "ins.": 3971,
      "▁same.": 3972,
      "▁den": 3973,
      "▁lone": 3974,
      "▁little.": 3975,
      "idge": 3976,
      "▁Lo": 3977,
      "▁Rog": 3978,
      "▁...and": 3979,
      "▁willing": 3980,
      "▁played": 3981,
      "▁best.": 3982,
      "▁accident.": 3983,
      "▁choice.": 3984,
      "▁horse": 3985,
      "▁fault.": 3986,
      "▁responsi": 3987,
      "▁folks": 3988,
      "aa": 3989,
      "bit": 3990,
      "▁won": 3991,
      "▁d'": 3992,
      "▁Mon": 3993,
      "▁notice": 3994,
      "▁within": 3995,
      "▁did?": 3996,
      "▁So?": 3997,
      "▁percent": 3998,
      "▁books": 3999,
      "▁dinner.": 4000,
      "▁profession": 4001,
      "ity?": 4002,
      "▁itself": 4003,
      "▁hom": 4004,
      "▁army": 4005,
      "spap": 4006,
      "▁mother's": 4007,
      "▁Danie": 4008,
      "▁purp": 4009,
      "boy": 4010,
      "cell": 4011,
      "for": 4012,
      "▁yell": 4013,
      "▁dying": 4014,
      "▁gas": 4015,
      "▁heal": 4016,
      "▁earth": 4017,
      "ries": 4018,
      "▁neither": 4019,
      "▁Oh!": 4020,
      "ear.": 4021,
      "▁cock": 4022,
      "▁support": 4023,
      "▁problems": 4024,
      "▁reading": 4025,
      "▁farm": 4026,
      "▁broken": 4027,
      "▁Admir": 4028,
      "0.": 4029,
      "ivers": 4030,
      "▁taught": 4031,
      "▁aud": 4032,
      "▁Int": 4033,
      "erk": 4034,
      "▁gri": 4035,
      "enny": 4036,
      "▁pan": 4037,
      "igg": 4038,
      "▁safe.": 4039,
      "▁old.": 4040,
      "▁smoke": 4041,
      "▁crow": 4042,
      "▁shot.": 4043,
      "▁water.": 4044,
      "▁Next": 4045,
      "▁voice": 4046,
      "▁embarrass": 4047,
      "nt": 4048,
      "sing": 4049,
      "on's": 4050,
      "▁gut": 4051,
      "▁pu": 4052,
      "▁pot": 4053,
      "▁heaven": 4054,
      "▁Sand": 4055,
      "id.": 4056,
      "▁AN": 4057,
      "▁HE": 4058,
      "▁ME": 4059,
      "▁effect": 4060,
      "▁Bri": 4061,
      "▁Cr": 4062,
      "▁Old": 4063,
      "▁Over": 4064,
      "▁suff": 4065,
      "▁right!": 4066,
      "▁why.": 4067,
      "▁Show": 4068,
      "▁chair": 4069,
      "▁evil": 4070,
      "▁alright?": 4071,
      "▁Bullsh": 4072,
      "MM": 4073,
      "less.": 4074,
      "▁mid": 4075,
      "▁boss": 4076,
      "erm": 4077,
      "▁fish": 4078,
      "▁Way": 4079,
      "...!": 4080,
      "▁Sant": 4081,
      "▁onto": 4082,
      "▁stock": 4083,
      "▁Other": 4084,
      "ros": 4085,
      "ly?": 4086,
      "▁Ev": 4087,
      "aine": 4088,
      "▁ways": 4089,
      "▁settle": 4090,
      "▁sense.": 4091,
      "▁dropped": 4092,
      "▁Captain.": 4093,
      "▁horri": 4094,
      "▁history": 4095,
      "▁finger": 4096,
      "▁difficult": 4097,
      "▁fortun": 4098,
      "gest": 4099,
      "▁caus": 4100,
      "outh.": 4101,
      "▁force": 4102,
      "▁Ob": 4103,
      "▁gettin'": 4104,
      "▁off?": 4105,
      "▁killer": 4106,
      "▁immed": 4107,
      "▁hands.": 4108,
      "▁showed": 4109,
      "▁ident": 4110,
      "▁questions.": 4111,
      "▁Check": 4112,
      "▁cool.": 4113,
      "'n": 4114,
      "iness": 4115,
      "ors.": 4116,
      "▁line.": 4117,
      "▁Sho": 4118,
      "▁Dou": 4119,
      "▁Cour": 4120,
      "▁Lind": 4121,
      "iforn": 4122,
      "▁right...": 4123,
      "▁would've": 4124,
      "▁const": 4125,
      "▁spee": 4126,
      "▁command": 4127,
      "▁Leon": 4128,
      "▁cash": 4129,
      "▁stupid.": 4130,
      "▁experience": 4131,
      "▁writing": 4132,
      "▁Californ": 4133,
      "g.": 4134,
      "iant": 4135,
      "venty": 4136,
      "▁pil": 4137,
      "ator.": 4138,
      "▁doing.": 4139,
      "▁lic": 4140,
      "▁real.": 4141,
      "▁Cut": 4142,
      "urse": 4143,
      "essor": 4144,
      "▁saying?": 4145,
      "▁killed.": 4146,
      "▁Van": 4147,
      "▁huh.": 4148,
      "▁Brit": 4149,
      "▁weeks.": 4150,
      "▁Jean": 4151,
      "▁murdered": 4152,
      "▁George.": 4153,
      "▁Smith": 4154,
      "▁waste": 4155,
      "▁beginning": 4156,
      "▁government": 4157,
      "▁further": 4158,
      "▁Pretty": 4159,
      "ier.": 4160,
      "of": 4161,
      "▁pun": 4162,
      "eth": 4163,
      "▁Had": 4164,
      "▁go!": 4165,
      "▁all?": 4166,
      "▁anybody.": 4167,
      "ures": 4168,
      "▁She'll": 4169,
      "▁before?": 4170,
      "▁newspap": 4171,
      "▁inside.": 4172,
      "▁warm": 4173,
      "▁choice": 4174,
      "▁afford": 4175,
      "▁computer": 4176,
      "ah.": 4177,
      "▁author": 4178,
      "▁dick": 4179,
      "▁calm": 4180,
      "ense.": 4181,
      "omm": 4182,
      "▁Hur": 4183,
      "▁on...": 4184,
      "▁agree": 4185,
      "▁spot": 4186,
      "▁introdu": 4187,
      "▁keeping": 4188,
      "▁ready.": 4189,
      "▁missing": 4190,
      "▁joke": 4191,
      "▁interview": 4192,
      "OW": 4193,
      "ai": 4194,
      "pect": 4195,
      "uly": 4196,
      "vill": 4197,
      "▁bec": 4198,
      "▁doctor.": 4199,
      "▁Li": 4200,
      "roll": 4201,
      "lyn": 4202,
      "▁name's": 4203,
      "▁Indian": 4204,
      "▁birthday": 4205,
      "▁German": 4206,
      "AY": 4207,
      "ype": 4208,
      "▁tip": 4209,
      "en?": 4210,
      "▁pool": 4211,
      "▁SH": 4212,
      "▁Mu": 4213,
      "▁Pre": 4214,
      "▁susp": 4215,
      "oss.": 4216,
      "▁work?": 4217,
      "▁happening": 4218,
      "▁motherfuck": 4219,
      "▁turns": 4220,
      "angu": 4221,
      "▁problem?": 4222,
      "▁champ": 4223,
      "▁drink?": 4224,
      "▁Here.": 4225,
      "▁luck.": 4226,
      "▁department": 4227,
      "▁clothe": 4228,
      "erer": 4229,
      "▁major": 4230,
      "do": 4231,
      "hood": 4232,
      "king": 4233,
      "ply": 4234,
      "▁ign": 4235,
      "▁war.": 4236,
      "▁sand": 4237,
      "▁Y'": 4238,
      "...you": 4239,
      "▁beyond": 4240,
      "ices": 4241,
      "▁are?": 4242,
      "▁We'd": 4243,
      "ain.": 4244,
      "▁Kr": 4245,
      "▁client": 4246,
      "▁Veg": 4247,
      "-tw": 4248,
      "▁Que": 4249,
      "▁terrif": 4250,
      "ratul": 4251,
      "▁service": 4252,
      "▁Im": 4253,
      "▁normal": 4254,
      "▁relationship": 4255,
      "ID": 4256,
      "ipped": 4257,
      "yw": 4258,
      "▁Same": 4259,
      "lect": 4260,
      "▁forward": 4261,
      "ce?": 4262,
      "▁rub": 4263,
      "ended": 4264,
      "▁Well.": 4265,
      "▁won't.": 4266,
      "▁Always": 4267,
      "▁home?": 4268,
      "▁mission": 4269,
      "▁deserve": 4270,
      "▁Super": 4271,
      "▁Paris": 4272,
      "▁Majest": 4273,
      "▁televis": 4274,
      "-y": 4275,
      "cer": 4276,
      "ground": 4277,
      "par": 4278,
      "sk": 4279,
      "iny": 4280,
      "ination": 4281,
      "▁dirty": 4282,
      "▁Dave": 4283,
      "▁Cat": 4284,
      "▁Jac": 4285,
      "▁suic": 4286,
      "▁her!": 4287,
      "▁she'd": 4288,
      "▁them!": 4289,
      "▁much?": 4290,
      "▁harm": 4291,
      "▁paying": 4292,
      "▁listening": 4293,
      "▁move.": 4294,
      "▁book.": 4295,
      "▁Harold": 4296,
      "▁evidence": 4297,
      "▁kidding.": 4298,
      "▁McC": 4299,
      "▁Buzz": 4300,
      "▁Lieutenant": 4301,
      "▁map": 4302,
      "▁cup": 4303,
      "▁ghost": 4304,
      "▁fant": 4305,
      "▁opt": 4306,
      "aring": 4307,
      "▁hired": 4308,
      "▁Hel": 4309,
      "▁Jon": 4310,
      "urance": 4311,
      "▁dear.": 4312,
      "istic": 4313,
      "▁would.": 4314,
      "▁guil": 4315,
      "resh": 4316,
      "▁sword": 4317,
      "▁Brother": 4318,
      "▁already.": 4319,
      "▁begin": 4320,
      "▁double": 4321,
      "▁children.": 4322,
      "▁tape": 4323,
      "▁idiot": 4324,
      "ED": 4325,
      "▁rom": 4326,
      "▁a...": 4327,
      "▁Min": 4328,
      "ell.": 4329,
      "▁Ry": 4330,
      "▁Rome": 4331,
      "▁But...": 4332,
      "▁rough": 4333,
      "▁could've": 4334,
      "▁where's": 4335,
      "▁ship.": 4336,
      "▁grab": 4337,
      "▁OK.": 4338,
      "▁losing": 4339,
      "▁satisf": 4340,
      "▁custom": 4341,
      "field": 4342,
      "loy": 4343,
      "vy": 4344,
      "▁wood": 4345,
      "▁cal": 4346,
      "▁langu": 4347,
      "ese": 4348,
      "▁hole": 4349,
      "▁often": 4350,
      "▁kitche": 4351,
      "asc": 4352,
      "le?": 4353,
      "imate": 4354,
      "--you": 4355,
      "rog": 4356,
      "rag": 4357,
      "▁play.": 4358,
      "▁unc": 4359,
      "▁print": 4360,
      "▁proof": 4361,
      "▁daughter.": 4362,
      "▁sweethe": 4363,
      "▁Trust": 4364,
      "▁surprised": 4365,
      "▁locked": 4366,
      "▁favorite": 4367,
      "wise": 4368,
      "itor": 4369,
      "▁band": 4370,
      "▁bod": 4371,
      "▁incl": 4372,
      "▁king": 4373,
      "▁ST": 4374,
      "rick": 4375,
      "amm": 4376,
      "her.": 4377,
      "▁Jerry": 4378,
      "▁worse.": 4379,
      "itten": 4380,
      "▁car?": 4381,
      "▁hurt.": 4382,
      "▁design": 4383,
      "▁Wouldn't": 4384,
      "▁Mom.": 4385,
      "▁teacher": 4386,
      "AS": 4387,
      "ps.": 4388,
      "ton.": 4389,
      "its.": 4390,
      "▁pard": 4391,
      "ley.": 4392,
      "ooper": 4393,
      "▁Cent": 4394,
      "▁rout": 4395,
      "ached": 4396,
      "▁<u>w": 4397,
      "▁nightm": 4398,
      "▁girl?": 4399,
      "▁runs": 4400,
      "▁assist": 4401,
      "▁planet": 4402,
      "▁attention": 4403,
      "-four": 4404,
      "▁Comp": 4405,
      "▁orders": 4406,
      "▁Sund": 4407,
      "otten": 4408,
      "▁scared.": 4409,
      "▁Things": 4410,
      "▁cous": 4411,
      "any": 4412,
      "▁gard": 4413,
      "▁Wha": 4414,
      "▁ho": 4415,
      "▁Count": 4416,
      "▁Lar": 4417,
      "▁Law": 4418,
      "▁sail": 4419,
      "▁helped": 4420,
      "▁greatest": 4421,
      "▁show.": 4422,
      "▁Bruce": 4423,
      "▁child.": 4424,
      "▁yeah?": 4425,
      "▁hanging": 4426,
      "▁Agent": 4427,
      "▁recognize": 4428,
      "-e": 4429,
      "uh": 4430,
      "yd": 4431,
      "▁9": 4432,
      "▁ver": 4433,
      "▁wound": 4434,
      "▁ya.": 4435,
      "▁due": 4436,
      "▁body.": 4437,
      "isc": 4438,
      "▁la": 4439,
      "▁loose": 4440,
      "▁held": 4441,
      "▁knowing": 4442,
      "▁Jer": 4443,
      "▁Feder": 4444,
      "ine?": 4445,
      "▁Val": 4446,
      "▁people?": 4447,
      "▁poss": 4448,
      "▁moment.": 4449,
      "ruction": 4450,
      "▁Scot": 4451,
      "▁following": 4452,
      "▁incred": 4453,
      "bility": 4454,
      "ez": 4455,
      "jam": 4456,
      "vin'": 4457,
      "▁Wil": 4458,
      "▁in...": 4459,
      "▁Aust": 4460,
      "▁Bad": 4461,
      "▁O'": 4462,
      "▁Ital": 4463,
      "▁Green": 4464,
      "▁got.": 4465,
      "▁FUCK": 4466,
      "unny": 4467,
      "▁anyone.": 4468,
      "▁whose": 4469,
      "▁try.": 4470,
      "▁Ver": 4471,
      "▁remain": 4472,
      "▁news.": 4473,
      "▁starts": 4474,
      "▁promise.": 4475,
      "land.": 4476,
      "▁simply": 4477,
      "▁hospital.": 4478,
      "▁dont": 4479,
      "▁Victor": 4480,
      "can": 4481,
      "gar": 4482,
      "iest": 4483,
      "reme": 4484,
      "an's": 4485,
      "▁becom": 4486,
      "▁Happ": 4487,
      "▁jeal": 4488,
      "▁Part": 4489,
      "▁deg": 4490,
      "▁comb": 4491,
      "▁project": 4492,
      "▁time...": 4493,
      "▁Goodbye": 4494,
      "ach.": 4495,
      "▁raise": 4496,
      "▁emerg": 4497,
      "▁decide": 4498,
      "▁complic": 4499,
      "▁street.": 4500,
      "▁papers": 4501,
      "▁afternoon": 4502,
      "▁ma'am.": 4503,
      "ually.": 4504,
      "ital": 4505,
      "▁jour": 4506,
      "▁Lond": 4507,
      "raph": 4508,
      "▁no...": 4509,
      "▁plant": 4510,
      "astic": 4511,
      "▁sees": 4512,
      "▁crap": 4513,
      "gged": 4514,
      "▁end.": 4515,
      "▁Claud": 4516,
      "▁techn": 4517,
      "▁Blue": 4518,
      "▁Charles": 4519,
      "▁pictures": 4520,
      "▁large": 4521,
      "OO": 4522,
      "▁&": 4523,
      "▁X": 4524,
      "▁laid": 4525,
      "▁Mick": 4526,
      "▁Gord": 4527,
      "hol": 4528,
      "▁Rom": 4529,
      "▁who?": 4530,
      "▁So...": 4531,
      "▁age": 4532,
      "▁State": 4533,
      "▁scr": 4534,
      "▁grad": 4535,
      "▁stop.": 4536,
      "▁hurry": 4537,
      "▁event": 4538,
      "▁airport": 4539,
      "▁memory": 4540,
      "▁address": 4541,
      "▁responsible": 4542,
      "▁concerned": 4543,
      "▁opportun": 4544,
      "LE": 4545,
      "ike.": 4546,
      "she": 4547,
      "inal": 4548,
      "orter": 4549,
      "▁thro": 4550,
      "ark.": 4551,
      "▁weather": 4552,
      "--and": 4553,
      "▁East": 4554,
      "▁comin'": 4555,
      "▁down?": 4556,
      "▁thought.": 4557,
      "▁shit!": 4558,
      "▁flat": 4559,
      "▁crime": 4560,
      "▁repres": 4561,
      "▁house?": 4562,
      "▁church": 4563,
      "fortun": 4564,
      "▁Richard": 4565,
      "▁suddenly": 4566,
      "▁split": 4567,
      "fle": 4568,
      "ience.": 4569,
      "k?": 4570,
      "off": 4571,
      "uv": 4572,
      "▁tour": 4573,
      "▁nail": 4574,
      "▁push": 4575,
      "▁Yep": 4576,
      "▁None": 4577,
      "▁City": 4578,
      "▁stom": 4579,
      "▁Lloy": 4580,
      "▁Gimme": 4581,
      "▁orig": 4582,
      "▁quarter": 4583,
      "▁claim": 4584,
      "▁What?!": 4585,
      "▁When?": 4586,
      "▁hoping": 4587,
      "▁police.": 4588,
      "▁bringing": 4589,
      "▁common": 4590,
      "ERE": 4591,
      "achel": 4592,
      "▁credit": 4593,
      "AD": 4594,
      "ces.": 4595,
      "ky": 4596,
      "inct": 4597,
      "it!": 4598,
      "▁borrow": 4599,
      "▁York.": 4600,
      "▁Hot": 4601,
      "▁Hop": 4602,
      "▁Fort": 4603,
      "▁thinking.": 4604,
      "▁Roy": 4605,
      "ore.": 4606,
      "▁Know": 4607,
      "this": 4608,
      "▁Really.": 4609,
      "▁Shit.": 4610,
      "▁employ": 4611,
      "▁eating": 4612,
      "▁disturb": 4613,
      "▁wedding": 4614,
      "▁group": 4615,
      "-and": 4616,
      "u.": 4617,
      "▁tar": 4618,
      "▁faith": 4619,
      "eds": 4620,
      "▁ug": 4621,
      "add": 4622,
      "▁Ca": 4623,
      "▁Lee": 4624,
      "▁up...": 4625,
      "way.": 4626,
      "▁twice": 4627,
      "▁way?": 4628,
      "▁Step": 4629,
      "▁<u>you": 4630,
      "▁live.": 4631,
      "▁yourself?": 4632,
      "▁Bring": 4633,
      "▁sleeping": 4634,
      "▁Unless": 4635,
      "▁possibly": 4636,
      "▁along.": 4637,
      "▁yesterday.": 4638,
      "▁innocent": 4639,
      "▁Relax": 4640,
      "'?": 4641,
      "bel": 4642,
      "ges": 4643,
      "▁wha": 4644,
      "▁mut": 4645,
      "▁mountain": 4646,
      "itiz": 4647,
      "itary": 4648,
      "▁heat": 4649,
      "▁hall": 4650,
      "▁Ant": 4651,
      "ently": 4652,
      "▁Eu": 4653,
      "ives": 4654,
      "▁her...": 4655,
      "abl": 4656,
      "▁vide": 4657,
      "hip.": 4658,
      "▁sweat": 4659,
      "▁movie.": 4660,
      "▁definitely": 4661,
      "▁complete": 4662,
      "▁cold.": 4663,
      "▁color": 4664,
      "▁Exactly.": 4665,
      "▁Colonel": 4666,
      "▁became": 4667,
      "AM": 4668,
      "col": 4669,
      "▁tight": 4670,
      "▁I-I": 4671,
      "ero": 4672,
      "▁hors": 4673,
      "▁rese": 4674,
      "▁Cause": 4675,
      "▁Open": 4676,
      "▁La": 4677,
      "▁Luc": 4678,
      "all.": 4679,
      "rage": 4680,
      "ement.": 4681,
      "agn": 4682,
      "▁lookin'": 4683,
      "▁sport": 4684,
      "▁climb": 4685,
      "▁Us": 4686,
      "▁checked": 4687,
      "▁passed": 4688,
      "▁deliver": 4689,
      "▁carrying": 4690,
      "▁Martin": 4691,
      "▁Alright.": 4692,
      "▁ruin": 4693,
      "▁": 4694,
      "light": 4695,
      "▁sour": 4696,
      "arant": 4697,
      "▁Spe": 4698,
      "vert": 4699,
      "antic": 4700,
      "▁Rep": 4701,
      "▁Earl": 4702,
      "▁expens": 4703,
      "▁Doctor.": 4704,
      "▁underst": 4705,
      "▁well...": 4706,
      "▁bigger": 4707,
      "▁assign": 4708,
      "ock.": 4709,
      "▁pregn": 4710,
      "▁blood.": 4711,
      "selves.": 4712,
      "▁medical": 4713,
      "▁success": 4714,
      "'T": 4715,
      "yal": 4716,
      "▁you--": 4717,
      "itut": 4718,
      "▁names": 4719,
      "▁nerve": 4720,
      "▁South": 4721,
      "▁lift": 4722,
      "▁OF": 4723,
      "▁out...": 4724,
      "▁Jos": 4725,
      "ie's": 4726,
      "▁exist": 4727,
      "▁agent": 4728,
      "</U>": 4729,
      "▁Until": 4730,
      "▁scient": 4731,
      "▁dise": 4732,
      "▁prec": 4733,
      "▁object": 4734,
      "▁Supp": 4735,
      "▁streng": 4736,
      "▁study": 4737,
      "▁magaz": 4738,
      "▁bullshit.": 4739,
      "▁lawyer": 4740,
      "▁Russian": 4741,
      "cut": 4742,
      "iqu": 4743,
      "ration": 4744,
      "▁type": 4745,
      "▁match": 4746,
      "itz": 4747,
      "▁ben": 4748,
      "▁bright": 4749,
      "▁fre": 4750,
      "▁have?": 4751,
      "▁Pe": 4752,
      "▁soft": 4753,
      "▁<U>": 4754,
      "▁God...": 4755,
      "▁whis": 4756,
      "▁rest.": 4757,
      "...I'm": 4758,
      "▁expecting": 4759,
      "▁paint": 4760,
      "▁outside.": 4761,
      "▁sister.": 4762,
      "▁Robert": 4763,
      "▁affair": 4764,
      "▁blew": 4765,
      "▁taste": 4766,
      "▁survive": 4767,
      "ffee.": 4768,
      "back": 4769,
      "father": 4770,
      "night.": 4771,
      "ual.": 4772,
      "▁....": 4773,
      "inci": 4774,
      "▁sight": 4775,
      "itch.": 4776,
      "▁cree": 4777,
      "▁file": 4778,
      "▁welcome": 4779,
      "▁Bra": 4780,
      "▁Certain": 4781,
      "▁storm": 4782,
      "iring": 4783,
      "▁Nope.": 4784,
      "▁back!": 4785,
      "▁spoke": 4786,
      "▁prov": 4787,
      "▁energ": 4788,
      "ments": 4789,
      "▁sir!": 4790,
      "▁life?": 4791,
      "man?": 4792,
      "▁prefer": 4793,
      "▁price": 4794,
      "▁Wait.": 4795,
      "▁watched": 4796,
      "▁aware": 4797,
      "▁dreams": 4798,
      "▁angry": 4799,
      "e's": 4800,
      "mon": 4801,
      "under": 4802,
      "▁mail": 4803,
      "ana": 4804,
      "▁threw": 4805,
      "ayl": 4806,
      "ates.": 4807,
      "▁um": 4808,
      "▁ur": 4809,
      "▁Dude": 4810,
      "ention.": 4811,
      "▁Life": 4812,
      "▁develop": 4813,
      "▁us!": 4814,
      "▁Karl": 4815,
      "▁ourselves": 4816,
      "▁lovely": 4817,
      "▁huh": 4818,
      "ograp": 4819,
      "▁descri": 4820,
      "pecially": 4821,
      "▁movies": 4822,
      "▁Betty": 4823,
      "▁Guy": 4824,
      "▁control.": 4825,
      "▁anywhere.": 4826,
      "▁mirac": 4827,
      "▁empty": 4828,
      "▁intellig": 4829,
      "▁British": 4830,
      "like": 4831,
      "▁Sat": 4832,
      "▁Their": 4833,
      "▁Park": 4834,
      "▁shr": 4835,
      "emme": 4836,
      "▁nowhere": 4837,
      "▁Thirty": 4838,
      "itted": 4839,
      "▁Kid": 4840,
      "▁tran": 4841,
      "▁bet.": 4842,
      "▁scri": 4843,
      "▁careful.": 4844,
      "▁Chic": 4845,
      "▁shows": 4846,
      "▁Govern": 4847,
      "▁famous": 4848,
      "▁afraid.": 4849,
      "▁sixty": 4850,
      "▁perfectly": 4851,
      "▁Shall": 4852,
      "▁Haven't": 4853,
      "▁open.": 4854,
      "▁darling.": 4855,
      "▁Poor": 4856,
      "K.": 4857,
      "ij": 4858,
      "ius": 4859,
      "kn": 4860,
      "o's": 4861,
      "inary": 4862,
      "rel": 4863,
      "▁bare": 4864,
      "▁cre": 4865,
      "▁fle": 4866,
      "▁bell": 4867,
      "▁Sn": 4868,
      "▁Hit": 4869,
      "▁DO": 4870,
      "▁note": 4871,
      "▁Jose": 4872,
      "▁scen": 4873,
      "▁believed": 4874,
      "ording": 4875,
      "▁biggest": 4876,
      "▁assume": 4877,
      "▁plans": 4878,
      "▁hard.": 4879,
      "▁access": 4880,
      "▁spec": 4881,
      "idden": 4882,
      "▁bedroom": 4883,
      "▁detective": 4884,
      "they": 4885,
      "▁Enter": 4886,
      "▁Senator": 4887,
      "▁silly": 4888,
      "-g": 4889,
      "▁bor": 4890,
      "▁boo": 4891,
      "is?": 4892,
      "▁port": 4893,
      "▁pair": 4894,
      "▁Nor": 4895,
      "▁Nat": 4896,
      "▁L.A.": 4897,
      "▁above": 4898,
      "ppy": 4899,
      "▁Res": 4900,
      "▁tell.": 4901,
      "▁Soon": 4902,
      "ate?": 4903,
      "▁vol": 4904,
      "▁Stan": 4905,
      "▁coffee.": 4906,
      "▁imm": 4907,
      "▁poison": 4908,
      "▁flight": 4909,
      "ograph": 4910,
      "▁shock": 4911,
      "▁desert": 4912,
      "▁term": 4913,
      "▁somewhere.": 4914,
      "▁sneak": 4915,
      "▁disappoint": 4916,
      "-of": 4917,
      "▁number.": 4918,
      "▁communic": 4919,
      "▁size": 4920,
      "▁the...": 4921,
      "▁Tayl": 4922,
      "omed": 4923,
      "▁hey": 4924,
      "ashed": 4925,
      "▁J.": 4926,
      "▁upon": 4927,
      "usion": 4928,
      "▁log": 4929,
      "▁qual": 4930,
      "▁long?": 4931,
      "▁Look.": 4932,
      "▁Been": 4933,
      "▁stayed": 4934,
      "gging": 4935,
      "▁bit.": 4936,
      "▁guns": 4937,
      "000": 4938,
      "▁dream.": 4939,
      "▁Bobby": 4940,
      "▁memor": 4941,
      "▁kidding": 4942,
      "▁tired.": 4943,
      "▁teleph": 4944,
      ".S.": 4945,
      "cy": 4946,
      "chan": 4947,
      "ons.": 4948,
      "▁date.": 4949,
      "▁far.": 4950,
      "▁free.": 4951,
      "▁Wow": 4952,
      "▁Hild": 4953,
      "▁Mond": 4954,
      "▁Des": 4955,
      "▁lif": 4956,
      "▁Cool": 4957,
      "▁Lam": 4958,
      "▁Gard": 4959,
      "▁Ra": 4960,
      "▁Rand": 4961,
      "▁butt": 4962,
      "▁plan.": 4963,
      "in'?": 4964,
      "▁been?": 4965,
      "▁something...": 4966,
      "▁Kat": 4967,
      "▁everywhere": 4968,
      "▁truly": 4969,
      "▁St.": 4970,
      "spe": 4971,
      "▁appoint": 4972,
      "▁surf": 4973,
      "▁10": 4974,
      "▁dog.": 4975,
      "▁Bob.": 4976,
      "that's": 4977,
      "▁afternoon.": 4978,
      "▁request": 4979,
      "▁places": 4980,
      "▁mill": 4981,
      "▁lit": 4982,
      "ay?": 4983,
      "▁Sam.": 4984,
      "idence.": 4985,
      "▁Haw": 4986,
      "▁vill": 4987,
      "▁others.": 4988,
      "▁leaves": 4989,
      "▁boys.": 4990,
      "▁planning": 4991,
      "▁please?": 4992,
      "▁skin": 4993,
      "▁husband.": 4994,
      "▁stories": 4995,
      "▁obviously": 4996,
      "▁]": 4997,
      "▁tit": 4998,
      "iner": 4999,
      "▁winn": 5000,
      "itude": 5001,
      "▁Wes": 5002,
      "▁Tim": 5003,
      "▁Tex": 5004,
      "▁Ber": 5005,
      "▁react": 5006,
      "▁Ow": 5007,
      "▁Gir": 5008,
      "allow": 5009,
      "hold": 5010,
      "▁No?": 5011,
      "▁Run": 5012,
      "ending": 5013,
      "▁Well?": 5014,
      "▁Kenn": 5015,
      "▁Vad": 5016,
      "▁partner": 5017,
      "▁Shhh": 5018,
      "▁sorry...": 5019,
      "ians": 5020,
      "▁ya?": 5021,
      "▁Seven": 5022,
      "▁Without": 5023,
      "▁drove": 5024,
      "▁strang": 5025,
      "▁especially": 5026,
      "▁system.": 5027,
      "▁total": 5028,
      "▁Major": 5029,
      "▁apartment.": 5030,
      "ecut": 5031,
      "▁prepared": 5032,
      "▁heavy": 5033,
      "b>": 5034,
      "de": 5035,
      "rate": 5036,
      "rend": 5037,
      "▁Wow.": 5038,
      "▁hunt": 5039,
      "▁Sy": 5040,
      "▁House": 5041,
      "▁Dun": 5042,
      "eez": 5043,
      "ental": 5044,
      "▁saf": 5045,
      "▁hearing": 5046,
      "▁Read": 5047,
      "▁craw": 5048,
      "▁seconds": 5049,
      "▁break.": 5050,
      "ancy": 5051,
      "▁speci": 5052,
      "▁murderer": 5053,
      "▁Billy": 5054,
      "▁Benjam": 5055,
      "▁forever.": 5056,
      "▁hungry.": 5057,
      "▁chicken": 5058,
      "▁World": 5059,
      "▁hiding": 5060,
      "▁Chicag": 5061,
      "bers": 5062,
      "dy?": 5063,
      "▁cele": 5064,
      "ises": 5065,
      "▁gang": 5066,
      "▁green": 5067,
      "▁fem": 5068,
      "▁pound": 5069,
      "▁Tre": 5070,
      "▁Satur": 5071,
      "▁Air": 5072,
      "▁Mel": 5073,
      "▁Mitche": 5074,
      "▁Nin": 5075,
      "▁rev": 5076,
      "▁soci": 5077,
      "▁were.": 5078,
      "▁Thurs": 5079,
      "ers!": 5080,
      "▁down!": 5081,
      "▁closed": 5082,
      "sible.": 5083,
      "▁funer": 5084,
      "▁Anybody": 5085,
      "▁accom": 5086,
      "▁choose": 5087,
      "▁emotion": 5088,
      "▁United": 5089,
      "▁answer.": 5090,
      "arently": 5091,
      "▁magic": 5092,
      "▁lady.": 5093,
      "▁local": 5094,
      "▁natural": 5095,
      "▁Professor": 5096,
      "▁Saturday": 5097,
      "GH": 5098,
      "ied.": 5099,
      "▁mouth.": 5100,
      "▁code": 5101,
      "▁gam": 5102,
      "▁Wood": 5103,
      "▁Ap": 5104,
      "▁Naw": 5105,
      "arth.": 5106,
      "▁see...": 5107,
      "empt": 5108,
      "▁had.": 5109,
      "▁then...": 5110,
      "▁cove": 5111,
      "▁kidna": 5112,
      "▁perm": 5113,
      "▁shop": 5114,
      "▁turning": 5115,
      "▁dead?": 5116,
      "▁hated": 5117,
      "▁listen.": 5118,
      "▁close.": 5119,
      "▁officer": 5120,
      "...what": 5121,
      "▁engag": 5122,
      "▁bottom": 5123,
      "I.": 5124,
      "gress": 5125,
      "iet.": 5126,
      "▁bon": 5127,
      "▁bur": 5128,
      "▁fresh": 5129,
      "▁pant": 5130,
      "▁oil": 5131,
      "▁thou": 5132,
      "ative.": 5133,
      "▁stay.": 5134,
      "▁go...": 5135,
      "▁Low": 5136,
      "▁Jess": 5137,
      "▁Prom": 5138,
      "ili": 5139,
      "ast.": 5140,
      "aked": 5141,
      "▁seat": 5142,
      "▁separ": 5143,
      "▁moon": 5144,
      "rence.": 5145,
      "▁boy?": 5146,
      "▁insurance": 5147,
      "▁words.": 5148,
      "▁Def": 5149,
      "▁restaur": 5150,
      "▁lost.": 5151,
      "▁Army": 5152,
      "▁records": 5153,
      "▁regret": 5154,
      "▁Nobody's": 5155,
      "▁kidding?": 5156,
      "▁Washington": 5157,
      "11": 5158,
      "b.": 5159,
      "nal": 5160,
      "▁sin": 5161,
      "▁nature": 5162,
      "▁Down": 5163,
      "▁Darl": 5164,
      "▁yours?": 5165,
      "▁what.": 5166,
      "eared": 5167,
      "▁Jason": 5168,
      "▁wheel": 5169,
      "▁Kind": 5170,
      "▁amb": 5171,
      "acy": 5172,
      "▁away?": 5173,
      "▁Chines": 5174,
      "▁bug": 5175,
      "▁bottle": 5176,
      "▁Dead": 5177,
      "▁deser": 5178,
      "▁drinking": 5179,
      "▁picking": 5180,
      "▁opened": 5181,
      "overed": 5182,
      "▁followed": 5183,
      "▁gentleman": 5184,
      "▁allowed": 5185,
      "▁judge": 5186,
      "▁breaking": 5187,
      "▁Dorot": 5188,
      "▁Angel": 5189,
      "▁Daniel": 5190,
      "▁represent": 5191,
      "!...": 5192,
      "by.": 5193,
      "got": 5194,
      "lm": 5195,
      "sc": 5196,
      "ines.": 5197,
      "▁Might": 5198,
      "rill": 5199,
      "▁Bro": 5200,
      "▁Cub": 5201,
      "▁ju": 5202,
      "▁Las": 5203,
      "iform": 5204,
      "▁Jake.": 5205,
      "▁Ros": 5206,
      "▁someone.": 5207,
      "▁saving": 5208,
      "▁could.": 5209,
      "▁said...": 5210,
      "▁must've": 5211,
      "▁uncle": 5212,
      "▁whom": 5213,
      "▁Tommy": 5214,
      "▁bloody": 5215,
      "▁Sir.": 5216,
      "▁medic": 5217,
      "▁publ": 5218,
      "▁bleed": 5219,
      "▁Hollyw": 5220,
      "-seven": 5221,
      "▁crowd": 5222,
      "ST": 5223,
      "my?": 5224,
      "men.": 5225,
      "o...": 5226,
      "rong": 5227,
      "side": 5228,
      "▁tie": 5229,
      ".....": 5230,
      "ison.": 5231,
      "ening": 5232,
      "▁Work": 5233,
      "ase.": 5234,
      "▁A.": 5235,
      "▁Dam": 5236,
      "▁wash": 5237,
      "ir.": 5238,
      "▁rum": 5239,
      "▁seventy": 5240,
      "ers...": 5241,
      "▁letting": 5242,
      "▁Vir": 5243,
      "▁written": 5244,
      "▁hell.": 5245,
      "age?": 5246,
      "▁Real": 5247,
      "▁wife?": 5248,
      "▁crazy?": 5249,
      "▁copy": 5250,
      "▁feelings": 5251,
      "incess": 5252,
      "▁advice": 5253,
      "▁gentlemen": 5254,
      "▁Enterpr": 5255,
      "has": 5256,
      "▁by.": 5257,
      "▁Walk": 5258,
      "▁nu": 5259,
      "ster.": 5260,
      "▁bear": 5261,
      "▁Acc": 5262,
      "▁lied": 5263,
      "▁Chi": 5264,
      "▁ON": 5265,
      "▁Ot": 5266,
      "▁Gal": 5267,
      "▁abs": 5268,
      "▁Earth": 5269,
      "▁way...": 5270,
      "▁helping": 5271,
      "▁older": 5272,
      "▁chest": 5273,
      "▁Okay...": 5274,
      "▁serve": 5275,
      "▁bitch.": 5276,
      "▁Claren": 5277,
      "▁Harry.": 5278,
      "ances": 5279,
      "▁sooner": 5280,
      "▁fire.": 5281,
      "▁eleven": 5282,
      "▁Charlie.": 5283,
      "▁Sweet": 5284,
      "▁training": 5285,
      "C.": 5286,
      "ILL": 5287,
      "bed": 5288,
      "os.": 5289,
      "su": 5290,
      "vin": 5291,
      "▁dry": 5292,
      "▁battle": 5293,
      "anz": 5294,
      "ising": 5295,
      "▁Tran": 5296,
      "▁hig": 5297,
      "▁be...": 5298,
      "▁reason.": 5299,
      "▁not!": 5300,
      "▁not...": 5301,
      "▁social": 5302,
      "ard?": 5303,
      "▁them...": 5304,
      "▁works.": 5305,
      "▁where?": 5306,
      "▁day?": 5307,
      "orney": 5308,
      "▁uniform": 5309,
      "▁disg": 5310,
      "▁desper": 5311,
      "▁18": 5312,
      "ia?": 5313,
      "▁Gotta": 5314,
      "▁Adam": 5315,
      "▁regular": 5316,
      "▁food.": 5317,
      "▁disappear": 5318,
      "▁o'clock.": 5319,
      "▁criminal": 5320,
      "▁Henry": 5321,
      "▁AND": 5322,
      "▁target": 5323,
      "-you": 5324,
      "oil": 5325,
      "▁et": 5326,
      "or's": 5327,
      "▁nurse": 5328,
      "▁pet": 5329,
      "▁Sher": 5330,
      "▁Ac": 5331,
      "▁weight": 5332,
      "▁Die": 5333,
      "ant?": 5334,
      "▁Lis": 5335,
      "▁Jap": 5336,
      "pper": 5337,
      "andon": 5338,
      "▁us...": 5339,
      "▁good?": 5340,
      "ference": 5341,
      "▁trad": 5342,
      "▁among": 5343,
      "▁class.": 5344,
      "▁buried": 5345,
      "▁father?": 5346,
      "▁month.": 5347,
      "▁Brad": 5348,
      "▁dealing": 5349,
      "▁hotel.": 5350,
      "▁light.": 5351,
      "▁shooting": 5352,
      "▁inde": 5353,
      "▁company.": 5354,
      "▁jail.": 5355,
      "▁Beaut": 5356,
      "▁corner": 5357,
      "▁Serge": 5358,
      "▁summer": 5359,
      "▁Baby": 5360,
      "▁ideas": 5361,
      "▁spirit": 5362,
      "lig": 5363,
      "ny?": 5364,
      "▁tong": 5365,
      "▁tree": 5366,
      "an!": 5367,
      "▁Dar": 5368,
      "▁reck": 5369,
      "▁Cons": 5370,
      "ics.": 5371,
      "▁Offic": 5372,
      "▁jew": 5373,
      "▁Its": 5374,
      "▁shield": 5375,
      "▁sever": 5376,
      "▁talking.": 5377,
      "▁how's": 5378,
      "▁Kir": 5379,
      "▁should've": 5380,
      "▁amount": 5381,
      "▁start.": 5382,
      "▁run.": 5383,
      "▁room?": 5384,
      "▁walk.": 5385,
      "▁damned": 5386,
      "▁THAT": 5387,
      "▁hair.": 5388,
      "▁expert": 5389,
      "▁mentioned": 5390,
      "▁Shit!": 5391,
      "▁brill": 5392,
      "▁numbers": 5393,
      "▁enemy": 5394,
      "▁occas": 5395,
      "▁Aye": 5396,
      "▁particular": 5397,
      "▁celebr": 5398,
      "val": 5399,
      "▁tend": 5400,
      "▁wine": 5401,
      "iss.": 5402,
      "▁games": 5403,
      "▁freed": 5404,
      "▁pure": 5405,
      "▁pian": 5406,
      "omin": 5407,
      "...and": 5408,
      "▁Mama": 5409,
      "▁is!": 5410,
      "ried.": 5411,
      "▁Day": 5412,
      "▁stink": 5413,
      "ly...": 5414,
      "cel": 5415,
      "▁Rock": 5416,
      "oph": 5417,
      "us?": 5418,
      "▁saying.": 5419,
      "▁Thought": 5420,
      "▁sched": 5421,
      "▁friend?": 5422,
      "▁kind.": 5423,
      "▁arms": 5424,
      "▁Joe.": 5425,
      "▁disp": 5426,
      "▁Jack?": 5427,
      "▁simple.": 5428,
      "▁extreme": 5429,
      "-six": 5430,
      "▁floor.": 5431,
      "▁history.": 5432,
      "▁apologize": 5433,
      "▁Thomas": 5434,
      "▁noticed": 5435,
      "hetic": 5436,
      "▁Dorothy": 5437,
      "AL": 5438,
      "iber": 5439,
      "ox": 5440,
      "▁bum": 5441,
      "▁besides": 5442,
      "▁cream": 5443,
      "▁Wom": 5444,
      "▁beer": 5445,
      "asure": 5446,
      "idge.": 5447,
      "▁Hill": 5448,
      "▁Ms.": 5449,
      "▁Cast": 5450,
      "▁Les": 5451,
      "▁Ram": 5452,
      "▁sevent": 5453,
      "▁intend": 5454,
      "▁Start": 5455,
      "udd": 5456,
      "▁coat": 5457,
      "▁career": 5458,
      "▁lives.": 5459,
      "▁activ": 5460,
      "▁Mark": 5461,
      "▁hates": 5462,
      "▁Excell": 5463,
      "▁Death": 5464,
      "▁sett": 5465,
      "▁eat.": 5466,
      "ruit": 5467,
      "▁Art": 5468,
      "ette": 5469,
      "▁buddy": 5470,
      "▁WHAT": 5471,
      "▁horrible": 5472,
      "▁jealous": 5473,
      "▁Yep.": 5474,
      "▁transp": 5475,
      "aire": 5476,
      "rad": 5477,
      "▁ta": 5478,
      "▁mass": 5479,
      "▁bal": 5480,
      "▁fan": 5481,
      "'s?": 5482,
      "▁Him": 5483,
      "▁Den": 5484,
      "▁knowled": 5485,
      "▁stair": 5486,
      "▁with?": 5487,
      "▁area": 5488,
      "▁Pull": 5489,
      "▁Welcome": 5490,
      "▁Far": 5491,
      "▁somehow": 5492,
      "▁rat": 5493,
      "▁roof": 5494,
      "▁spare": 5495,
      "▁downstair": 5496,
      "▁'B": 5497,
      "▁finds": 5498,
      "▁tryin'": 5499,
      "▁swe": 5500,
      "▁chem": 5501,
      "▁women.": 5502,
      "▁toward": 5503,
      "azz": 5504,
      "▁exactly.": 5505,
      "▁Mean": 5506,
      "▁Neither": 5507,
      "▁sending": 5508,
      "▁Couldn't": 5509,
      "▁President.": 5510,
      "▁impossible": 5511,
      "▁Half": 5512,
      "▁receive": 5513,
      "▁suspic": 5514,
      "-two": 5515,
      "▁Queen": 5516,
      "-B": 5517,
      "give": 5518,
      "iod": 5519,
      "ible.": 5520,
      "▁sna": 5521,
      "inger": 5522,
      "▁cod": 5523,
      "▁fund": 5524,
      "▁Hang": 5525,
      "▁that'll": 5526,
      "▁meat": 5527,
      "▁Nic": 5528,
      "▁Nah": 5529,
      "▁Bon": 5530,
      "▁jerk": 5531,
      "ceed": 5532,
      "▁Feel": 5533,
      "ieur": 5534,
      "ucky": 5535,
      "▁man...": 5536,
      "itty": 5537,
      "▁sometimes.": 5538,
      "▁meaning": 5539,
      "▁Kn": 5540,
      "▁trade": 5541,
      "▁Ven": 5542,
      "▁<u>I": 5543,
      "ization": 5544,
      "▁part.": 5545,
      "▁runn": 5546,
      "▁final": 5547,
      "▁maybe.": 5548,
      "▁compet": 5549,
      "▁reput": 5550,
      "▁easier": 5551,
      "▁broad": 5552,
      "▁touched": 5553,
      "▁depress": 5554,
      "▁bullet": 5555,
      "▁sexual": 5556,
      "▁legs": 5557,
      "▁elev": 5558,
      "▁perfect.": 5559,
      "▁drugs": 5560,
      "▁infl": 5561,
      "▁occur": 5562,
      "▁ridiculous.": 5563,
      "▁Jacqu": 5564,
      "▁bodies": 5565,
      "▁strength": 5566,
      "ees": 5567,
      "thy": 5568,
      "▁tail": 5569,
      "▁wire": 5570,
      "▁hire": 5571,
      "▁Sister": 5572,
      "▁Hom": 5573,
      "▁Bird": 5574,
      "▁don't...": 5575,
      "▁got?": 5576,
      "▁Ru": 5577,
      "▁Eric": 5578,
      "▁Easy": 5579,
      "▁way!": 5580,
      "▁road.": 5581,
      "▁robb": 5582,
      "▁done?": 5583,
      "▁problems.": 5584,
      "▁school?": 5585,
      "▁five.": 5586,
      "▁thousand.": 5587,
      "▁ordered": 5588,
      "▁confess": 5589,
      "▁Bill.": 5590,
      "▁concent": 5591,
      "▁eighteen": 5592,
      "▁familiar": 5593,
      "▁oughta": 5594,
      "▁sales": 5595,
      "▁asshole.": 5596,
      "▁circum": 5597,
      "▁slept": 5598,
      "▁Hurry": 5599,
      "CH": 5600,
      "ienc": 5601,
      "l'": 5602,
      "phe": 5603,
      "yg": 5604,
      "rely": 5605,
      "▁mak": 5606,
      "▁therap": 5607,
      "▁fight.": 5608,
      "▁loud": 5609,
      "▁Won't": 5610,
      "▁Yah": 5611,
      "▁Sa": 5612,
      "cked": 5613,
      "▁lie.": 5614,
      "▁Cy": 5615,
      "▁Cont": 5616,
      "icle": 5617,
      "▁stol": 5618,
      "▁O.": 5619,
      "ent?": 5620,
      "▁Gar": 5621,
      "▁ate": 5622,
      "quot": 5623,
      "▁Kell": 5624,
      "▁Now.": 5625,
      "▁enc": 5626,
      "ize.": 5627,
      "▁mater": 5628,
      "▁rain": 5629,
      "▁heads": 5630,
      "cup": 5631,
      "▁Seems": 5632,
      "▁river": 5633,
      "▁favor.": 5634,
      "▁practically": 5635,
      "▁ticket": 5636,
      "▁weapons": 5637,
      "▁propos": 5638,
      "▁avoid": 5639,
      "▁negot": 5640,
      "▁Congratul": 5641,
      "▁ridiculous": 5642,
      "▁behav": 5643,
      "▁curious": 5644,
      "▁nightmare": 5645,
      "▁<u>you</u>": 5646,
      "mber": 5647,
      "sha": 5648,
      "xx": 5649,
      "▁table.": 5650,
      "▁Im": 5651,
      "▁maid": 5652,
      "▁dun": 5653,
      "eng": 5654,
      "▁Hor": 5655,
      "imp": 5656,
      "▁Mam": 5657,
      "▁like...": 5658,
      "▁ride.": 5659,
      "▁betray": 5660,
      "▁unus": 5661,
      "▁recomm": 5662,
      "▁shad": 5663,
      "▁trial": 5664,
      "▁stuff?": 5665,
      "▁brothers": 5666,
      "▁invited": 5667,
      "▁Spock": 5668,
      "▁Jesus!": 5669,
      "▁Absolutely": 5670,
      "▁signal": 5671,
      "▁picture.": 5672,
      "▁America": 5673,
      "▁window.": 5674,
      "▁drag": 5675,
      "▁England": 5676,
      "irty.": 5677,
      "solutely.": 5678,
      "▁Danny": 5679,
      "▁Walter.": 5680,
      "▁rule": 5681,
      "▁pressure": 5682,
      "▁arrang": 5683,
      "▁amazing": 5684,
      "▁lonely": 5685,
      "▁Caes": 5686,
      "▁Chinese": 5687,
      "SE": 5688,
      "ient.": 5689,
      "w.": 5690,
      "▁wis": 5691,
      "▁woke": 5692,
      "▁sed": 5693,
      "▁dust": 5694,
      "▁city.": 5695,
      "ank.": 5696,
      "▁general": 5697,
      "▁Tot": 5698,
      "▁do...": 5699,
      "rict": 5700,
      "▁Bern": 5701,
      "▁Dis": 5702,
      "▁knows.": 5703,
      "▁liqu": 5704,
      "▁Ok": 5705,
      "▁Andy": 5706,
      "ie...": 5707,
      "▁Oh?": 5708,
      "▁tellin'": 5709,
      "▁usual": 5710,
      "▁off!": 5711,
      "▁condu": 5712,
      "ond.": 5713,
      "▁scene": 5714,
      "▁bridge": 5715,
      "▁shoes": 5716,
      "▁driver": 5717,
      "▁wonderful.": 5718,
      "rupt": 5719,
      "▁Such": 5720,
      "▁Perfect": 5721,
      "▁military": 5722,
      "▁magn": 5723,
      "▁Max.": 5724,
      "▁situation.": 5725,
      "▁pissed": 5726,
      "▁nervous.": 5727,
      "▁garb": 5728,
      "▁comfortable": 5729,
      "▁Terri": 5730,
      "▁y'know": 5731,
      "▁upstairs": 5732,
      "▁clothes.": 5733,
      "▁Vegas": 5734,
      "▁Italian": 5735,
      "cent.": 5736,
      "der": 5737,
      "house": 5738,
      "nel": 5739,
      "time": 5740,
      "▁wave": 5741,
      "▁Ir": 5742,
      "▁mood": 5743,
      "▁non": 5744,
      "▁pin": 5745,
      "▁three.": 5746,
      "▁dozen": 5747,
      "▁Mont": 5748,
      "▁Move": 5749,
      "--w": 5750,
      "▁Bur": 5751,
      "▁need.": 5752,
      "▁Fire": 5753,
      "ily.": 5754,
      "▁Either": 5755,
      "▁...W": 5756,
      "▁loyal": 5757,
      "▁vamp": 5758,
      "▁ask.": 5759,
      "▁waited": 5760,
      "▁drunk.": 5761,
      "▁prim": 5762,
      "▁rabb": 5763,
      "▁cute": 5764,
      "▁interesting.": 5765,
      "▁cop.": 5766,
      "▁apart": 5767,
      "▁speed": 5768,
      "-the": 5769,
      "▁straight.": 5770,
      "▁married?": 5771,
      "▁America.": 5772,
      "▁legal": 5773,
      "▁defend": 5774,
      "▁burned": 5775,
      "▁Grace": 5776,
      "▁[B": 5777,
      "▁brief": 5778,
      "▁rules": 5779,
      "▁Tonight": 5780,
      "▁professional": 5781,
      "▁license": 5782,
      "-one": 5783,
      "mer": 5784,
      "yle.": 5785,
      "▁mal": 5786,
      "ities.": 5787,
      "▁boss.": 5788,
      "ings.": 5789,
      "▁c'm": 5790,
      "▁citiz": 5791,
      "▁hyp": 5792,
      "ater.": 5793,
      "▁Best": 5794,
      "ica": 5795,
      "▁Lu": 5796,
      "▁are...": 5797,
      "▁shirt": 5798,
      "▁say...": 5799,
      "▁Yeah!": 5800,
      "▁things?": 5801,
      "▁Why'd": 5802,
      "▁really?": 5803,
      "uding": 5804,
      "▁finding": 5805,
      "▁Anna": 5806,
      "▁shit?": 5807,
      "▁everything's": 5808,
      "▁job?": 5809,
      "▁slight": 5810,
      "▁desk": 5811,
      "▁warn": 5812,
      "▁commit": 5813,
      "ault": 5814,
      "▁son?": 5815,
      "▁entertain": 5816,
      "▁expected": 5817,
      "▁pulling": 5818,
      "▁murder.": 5819,
      "▁square": 5820,
      "▁feet.": 5821,
      "▁breathe": 5822,
      "▁creature": 5823,
      "▁lawyer.": 5824,
      "▁hungry": 5825,
      "▁Exactly": 5826,
      "▁purpose": 5827,
      "2.": 5828,
      "OT": 5829,
      "UR": 5830,
      "bow": 5831,
      "mother": 5832,
      "▁IS": 5833,
      "▁mort": 5834,
      "▁nast": 5835,
      "▁pip": 5836,
      "▁pump": 5837,
      "ato": 5838,
      "ature.": 5839,
      "▁You?": 5840,
      "▁Save": 5841,
      "▁Aunt": 5842,
      "▁North": 5843,
      "▁Bell": 5844,
      "▁Jab": 5845,
      "▁Jenn": 5846,
      "▁guarant": 5847,
      "▁execut": 5848,
      "▁everybody.": 5849,
      "▁var": 5850,
      "▁love?": 5851,
      "▁happen?": 5852,
      "onder": 5853,
      "▁girls.": 5854,
      "▁Joey": 5855,
      "▁another.": 5856,
      "▁chief": 5857,
      "▁Christ.": 5858,
      "swald": 5859,
      "▁question?": 5860,
      "▁please...": 5861,
      "▁lights": 5862,
      "▁pattern": 5863,
      "▁powerful": 5864,
      "▁excited": 5865,
      "▁bucks.": 5866,
      "▁Jeffrey": 5867,
      "▁future.": 5868,
      "▁strike": 5869,
      "▁power.": 5870,
      "▁product": 5871,
      "▁asleep.": 5872,
      "▁opportunity": 5873,
      "▁Joseph": 5874,
      "▁circumst": 5875,
      "And": 5876,
      "bass": 5877,
      "io.": 5878,
      "lc": 5879,
      "s'": 5880,
      "town": 5881,
      "▁master": 5882,
      "▁nar": 5883,
      "▁page": 5884,
      "▁Sail": 5885,
      "▁docum": 5886,
      "▁Morn": 5887,
      "rie": 5888,
      "▁Bart": 5889,
      "▁---": 5890,
      "▁Los": 5891,
      "ury.": 5892,
      "▁Rod": 5893,
      "▁<u>d": 5894,
      "▁slip": 5895,
      "▁Speak": 5896,
      "▁Neg": 5897,
      "▁goddam": 5898,
      "▁20": 5899,
      "clear": 5900,
      "▁Play": 5901,
      "oken": 5902,
      "▁Everything's": 5903,
      "▁psycholog": 5904,
      "▁letters": 5905,
      "▁breath": 5906,
      "▁store.": 5907,
      "▁soldi": 5908,
      "▁devil": 5909,
      "▁Detective": 5910,
      "▁Friday": 5911,
      "▁issue": 5912,
      "▁baseball": 5913,
      "▁opinion": 5914,
      "▁lunch.": 5915,
      "▁speech": 5916,
      "▁energy": 5917,
      "quot;": 5918,
      "▁[Beat": 5919,
      "-st": 5920,
      "P.": 5921,
      "ina.": 5922,
      "▁snow": 5923,
      "▁mam": 5924,
      "it?": 5925,
      "▁bite": 5926,
      "▁toil": 5927,
      "▁grew": 5928,
      "▁hill": 5929,
      "▁Matt": 5930,
      "▁Burn": 5931,
      "▁Cou": 5932,
      "▁Coll": 5933,
      "▁stab": 5934,
      "▁Oswald": 5935,
      "ented": 5936,
      "▁nearly": 5937,
      "ra.": 5938,
      "▁Ron": 5939,
      "isted": 5940,
      "▁from.": 5941,
      "▁leaving.": 5942,
      "▁switch": 5943,
      "▁hello": 5944,
      "ption": 5945,
      "▁showing": 5946,
      "▁Almost": 5947,
      "▁matters": 5948,
      "▁personally": 5949,
      "▁brings": 5950,
      "▁Fucking": 5951,
      "▁brains": 5952,
      "▁closer": 5953,
      "▁Marty": 5954,
      "▁Jeffre": 5955,
      "▁dressed": 5956,
      "▁busted": 5957,
      "▁teeth": 5958,
      "i!": 5959,
      "hered": 5960,
      "onna": 5961,
      "▁mast": 5962,
      "▁dad.": 5963,
      "▁gre": 5964,
      "▁lous": 5965,
      "▁Wy": 5966,
      "▁inj": 5967,
      "▁beach": 5968,
      "▁Send": 5969,
      "▁Squ": 5970,
      "▁do!": 5971,
      "▁Mat": 5972,
      "▁Bat": 5973,
      "▁stars": 5974,
      "▁staff": 5975,
      "▁cand": 5976,
      "unce": 5977,
      "▁Espe": 5978,
      "▁one...": 5979,
      "▁ring.": 5980,
      "▁offered": 5981,
      "ateful": 5982,
      "▁Stand": 5983,
      "▁happens.": 5984,
      "▁science": 5985,
      "▁heading": 5986,
      "▁Right?": 5987,
      "▁Absolutely.": 5988,
      "▁pieces": 5989,
      "▁falling": 5990,
      "▁past.": 5991,
      "▁forever": 5992,
      "-hundred": 5993,
      "▁miser": 5994,
      "▁wasting": 5995,
      "▁Phill": 5996,
      "▁illeg": 5997,
      "ounce": 5998,
      "▁engine": 5999,
      "▁Second": 6000,
      "▁continue": 6001,
      "▁Street": 6002,
      "▁Admiral": 6003,
      "▁California": 6004,
      "▁introduce": 6005,
      "▁television": 6006,
      "▁kitchen": 6007,
      "▁covered": 6008,
      "▁[Beat]": 6009,
      "▁Especially": 6010,
      "cing": 6011,
      "i...": 6012,
      "t's": 6013,
      "▁sou": 6014,
      "▁dare": 6015,
      "▁dark.": 6016,
      "▁lord": 6017,
      "▁lines": 6018,
      "▁Tur": 6019,
      "▁Tues": 6020,
      "eter": 6021,
      "etic": 6022,
      "▁Sur": 6023,
      "▁Sil": 6024,
      "▁Naz": 6025,
      "▁Du": 6026,
      "▁was?": 6027,
      "▁Luke": 6028,
      "▁GET": 6029,
      "▁abo": 6030,
      "▁about...": 6031,
      "▁thinkin'": 6032,
      "ilos": 6033,
      "▁...you": 6034,
      "▁sake.": 6035,
      "▁plus": 6036,
      "▁agre": 6037,
      "▁come?": 6038,
      "▁'I": 6039,
      "though": 6040,
      "▁Answ": 6041,
      "▁longer.": 6042,
      "▁help?": 6043,
      "▁arg": 6044,
      "spir": 6045,
      "▁both.": 6046,
      "▁15": 6047,
      "▁relig": 6048,
      "▁Wasn't": 6049,
      "▁drive.": 6050,
      "▁psychiat": 6051,
      "-law": 6052,
      "▁Chaunce": 6053,
      "althy": 6054,
      "▁arrived": 6055,
      "▁Fifty": 6056,
      "-eight": 6057,
      "▁Mickey": 6058,
      "▁ugly": 6059,
      "hood.": 6060,
      "iac": 6061,
      "lock": 6062,
      "▁merc": 6063,
      "▁da": 6064,
      "ans.": 6065,
      "▁lying.": 6066,
      "▁net": 6067,
      "▁punch": 6068,
      "▁thief": 6069,
      "▁Ahh": 6070,
      "▁Med": 6071,
      "▁Ba": 6072,
      "▁D.": 6073,
      "▁junk": 6074,
      "▁Gold": 6075,
      "▁He'd": 6076,
      "rope": 6077,
      "ie!": 6078,
      "essed": 6079,
      "▁evening.": 6080,
      "tail": 6081,
      "▁again!": 6082,
      "▁Church": 6083,
      "▁hell's": 6084,
      "▁action": 6085,
      "▁grown": 6086,
      "▁diam": 6087,
      "▁boat.": 6088,
      "▁plane.": 6089,
      "▁attention.": 6090,
      "▁express": 6091,
      "▁Att": 6092,
      "▁terror": 6093,
      "▁beauty": 6094,
      "▁prior": 6095,
      "▁invite": 6096,
      "▁jok": 6097,
      "▁Tom.": 6098,
      "▁Need": 6099,
      "▁air.": 6100,
      "▁created": 6101,
      "unno.": 6102,
      "▁data": 6103,
      "▁conversation": 6104,
      "▁character": 6105,
      "▁Bullshit.": 6106,
      "▁Y'know": 6107,
      "▁Lloyd": 6108,
      "▁Certainly": 6109,
      "E.": 6110,
      "ial.": 6111,
      "ler.": 6112,
      "ram": 6113,
      "rant": 6114,
      "ses": 6115,
      "ano": 6116,
      "▁fro": 6117,
      "▁Wall": 6118,
      "▁oce": 6119,
      "▁Young": 6120,
      "▁Sug": 6121,
      "▁ones.": 6122,
      "▁Mul": 6123,
      "--the": 6124,
      "▁knife": 6125,
      "▁D'": 6126,
      "▁I'm...": 6127,
      "▁Head": 6128,
      "un.": 6129,
      "▁Ray.": 6130,
      "▁Rachel": 6131,
      "▁too!": 6132,
      "▁talks": 6133,
      "▁spell": 6134,
      "▁van": 6135,
      "▁quiet.": 6136,
      "▁cars": 6137,
      "▁realized": 6138,
      "▁started.": 6139,
      "▁plays": 6140,
      "▁Anyone": 6141,
      "▁walks": 6142,
      "▁Dev": 6143,
      "▁complain": 6144,
      "▁young.": 6145,
      "▁signed": 6146,
      "▁depos": 6147,
      "▁forgotten": 6148,
      "▁YOUR": 6149,
      "▁freez": 6150,
      "▁Quite": 6151,
      "▁flying": 6152,
      "▁weird.": 6153,
      "▁knocked": 6154,
      "▁physical": 6155,
      "▁duty": 6156,
      "▁guilty": 6157,
      "▁Happy": 6158,
      "▁Kenned": 6159,
      "▁Hollywood": 6160,
      "▁negoti": 6161,
      "OP": 6162,
      "VER": 6163,
      "oci": 6164,
      "sen": 6165,
      "▁wise": 6166,
      "▁mad.": 6167,
      "▁dunno.": 6168,
      "otic": 6169,
      "▁You...": 6170,
      "▁Nick.": 6171,
      "▁Bax": 6172,
      "▁station.": 6173,
      "▁Lady": 6174,
      "▁Pick": 6175,
      "ourse": 6176,
      "aine.": 6177,
      "ways.": 6178,
      "▁Kay": 6179,
      "▁States": 6180,
      "ission.": 6181,
      "▁nights": 6182,
      "▁brand": 6183,
      "▁Beck": 6184,
      "▁unf": 6185,
      "▁acqu": 6186,
      "▁busy.": 6187,
      "▁hope.": 6188,
      "▁tomorrow?": 6189,
      "▁Christ!": 6190,
      "▁sixteen": 6191,
      "▁seconds.": 6192,
      "▁thousands": 6193,
      "▁invit": 6194,
      "▁cash.": 6195,
      "-to": 6196,
      "▁Bye": 6197,
      "▁Steve": 6198,
      "▁property": 6199,
      "▁Junior": 6200,
      "▁Starfle": 6201,
      "▁pocket": 6202,
      "▁Beautiful": 6203,
      "▁several": 6204,
      "burg": 6205,
      "▁yard": 6206,
      "llen": 6207,
      "▁Yo": 6208,
      "oo.": 6209,
      "▁Calm": 6210,
      "▁wanted.": 6211,
      "ter?": 6212,
      "▁Web": 6213,
      "▁Fair": 6214,
      "ably": 6215,
      "▁back...": 6216,
      "▁Shell": 6217,
      "▁spea": 6218,
      "▁time!": 6219,
      "plic": 6220,
      "▁around?": 6221,
      "▁big.": 6222,
      "▁assum": 6223,
      "▁trap": 6224,
      "iction": 6225,
      "▁mother?": 6226,
      "▁knew.": 6227,
      "▁rail": 6228,
      "▁attempt": 6229,
      "▁Brown": 6230,
      "▁morning?": 6231,
      "▁watch.": 6232,
      "▁See?": 6233,
      "-fif": 6234,
      "0000": 6235,
      "▁lucky.": 6236,
      "▁wife's": 6237,
      "▁explan": 6238,
      "ency.": 6239,
      "▁Huh": 6240,
      "▁discovered": 6241,
      "▁message.": 6242,
      "▁sex.": 6243,
      "▁Enough": 6244,
      "▁ruined": 6245,
      "▁ladies": 6246,
      "▁bastard.": 6247,
      "▁cabin": 6248,
      "▁Flor": 6249,
      "--------------------------------": 6250,
      "▁equip": 6251,
      "▁Department": 6252,
      "▁pilot": 6253,
      "▁Suppose": 6254,
      "▁script": 6255,
      "J.": 6256,
      "ka": 6257,
      "ture": 6258,
      "your": 6259,
      "▁tunn": 6260,
      "▁wre": 6261,
      "▁Imp": 6262,
      "on!": 6263,
      "▁Win": 6264,
      "▁pred": 6265,
      "▁it'd": 6266,
      "▁Serv": 6267,
      "▁Miam": 6268,
      "▁Buff": 6269,
      "▁DON": 6270,
      "ical.": 6271,
      "▁Ooo": 6272,
      "▁myster": 6273,
      "ink.": 6274,
      "▁Pard": 6275,
      "▁Funny": 6276,
      "pped.": 6277,
      "iev": 6278,
      "▁plain": 6279,
      "▁coming?": 6280,
      "▁thing...": 6281,
      "▁spread": 6282,
      "▁spoil": 6283,
      "▁intention": 6284,
      "▁'S": 6285,
      "ge?": 6286,
      "▁underw": 6287,
      "▁scar": 6288,
      "▁score": 6289,
      "▁fles": 6290,
      "▁Forgive": 6291,
      "▁trail": 6292,
      "▁boot": 6293,
      "▁shape": 6294,
      "▁dead!": 6295,
      "▁Christ's": 6296,
      "▁result": 6297,
      "▁riding": 6298,
      "▁experiment": 6299,
      "▁member": 6300,
      "▁operation": 6301,
      "▁transfer": 6302,
      "load": 6303,
      "▁TV.": 6304,
      "▁Emper": 6305,
      "▁demand": 6306,
      "▁Secret": 6307,
      "▁ma'am": 6308,
      "▁mixed": 6309,
      "ville": 6310,
      "▁Sunday": 6311,
      "▁gradu": 6312,
      "▁benef": 6313,
      "▁barely": 6314,
      "▁dunno": 6315,
      "IC": 6316,
      "there": 6317,
      "▁tall": 6318,
      "▁bound": 6319,
      "▁nic": 6320,
      "ating.": 6321,
      "▁beam": 6322,
      "▁Sleep": 6323,
      "▁Mur": 6324,
      "▁Mons": 6325,
      "▁Master": 6326,
      "▁Night": 6327,
      "▁Bas": 6328,
      "▁Care": 6329,
      "▁stro": 6330,
      "▁Jane": 6331,
      "▁Pear": 6332,
      "▁think...": 6333,
      "▁someplace": 6334,
      "▁seal": 6335,
      "ument": 6336,
      "▁Kev": 6337,
      "▁Use": 6338,
      "▁blank": 6339,
      "▁univer": 6340,
      "▁drown": 6341,
      "▁associ": 6342,
      "▁actually.": 6343,
      "▁period": 6344,
      "▁Getting": 6345,
      "▁insult": 6346,
      "▁hurry.": 6347,
      "▁repeat": 6348,
      "▁mom.": 6349,
      "▁sonof": 6350,
      "▁joke.": 6351,
      "ney.": 6352,
      "▁Afric": 6353,
      "▁secret.": 6354,
      "olution": 6355,
      "▁grave": 6356,
      "▁advant": 6357,
      "▁doctors": 6358,
      "▁Paul.": 6359,
      "▁direction": 6360,
      "▁Sidney": 6361,
      "▁buddy.": 6362,
      "▁upset.": 6363,
      "▁belongs": 6364,
      "▁impossible.": 6365,
      "▁'til": 6366,
      "▁Moz": 6367,
      "▁immedi": 6368,
      "▁sandw": 6369,
      "▁suicide": 6370,
      "▁emergency": 6371,
      "-L": 6372,
      "EL": 6373,
      "IM": 6374,
      "ior.": 6375,
      "ket": 6376,
      "line": 6377,
      "oh": 6378,
      "son?": 6379,
      "ux": 6380,
      "ward.": 6381,
      "▁_": 6382,
      "▁set.": 6383,
      "▁south": 6384,
      "ony.": 6385,
      "▁mama": 6386,
      "▁cooper": 6387,
      "ism.": 6388,
      "▁led": 6389,
      "▁nigg": 6390,
      "▁pir": 6391,
      "▁Tob": 6392,
      "▁Sul": 6393,
      "▁HA": 6394,
      "▁Hud": 6395,
      "▁Made": 6396,
      "▁Nix": 6397,
      "▁Ben.": 6398,
      "▁forced": 6399,
      "▁Dri": 6400,
      "▁Dire": 6401,
      "▁OUT": 6402,
      "▁Lomb": 6403,
      "ift.": 6404,
      "▁Pow": 6405,
      "hant": 6406,
      "using": 6407,
      "▁whore": 6408,
      "eman": 6409,
      "▁too...": 6410,
      "idered": 6411,
      "▁Reg": 6412,
      "▁recall": 6413,
      "▁insane": 6414,
      "▁idea?": 6415,
      "▁positive": 6416,
      "▁trip.": 6417,
      "▁together?": 6418,
      "▁12": 6419,
      "▁wondered": 6420,
      "▁decent": 6421,
      "▁opening": 6422,
      "▁alone?": 6423,
      "▁detect": 6424,
      "ashion": 6425,
      "▁fool.": 6426,
      "▁captain": 6427,
      "▁capable": 6428,
      "▁burning": 6429,
      "▁keys": 6430,
      "▁NOT": 6431,
      "▁breathing": 6432,
      "▁Michael.": 6433,
      "▁convinc": 6434,
      "▁Steven": 6435,
      "iately.": 6436,
      "▁admire": 6437,
      "▁valu": 6438,
      "▁Honor": 6439,
      "▁bank.": 6440,
      "▁electric": 6441,
      "▁decision": 6442,
      "▁Today": 6443,
      "stein": 6444,
      "▁Larry": 6445,
      "▁Europe": 6446,
      "▁research": 6447,
      "▁accompl": 6448,
      "▁disgust": 6449,
      "▁jewel": 6450,
      "▁Answer": 6451,
      "▁Monsieur": 6452,
      "-up.": 6453,
      "cra": 6454,
      "fl": 6455,
      "r.": 6456,
      "▁cart": 6457,
      "▁corr": 6458,
      "▁card.": 6459,
      "▁fab": 6460,
      "▁firm": 6461,
      "▁Mal": 6462,
      "▁Mind": 6463,
      "▁knows?": 6464,
      "▁Off": 6465,
      "▁Land": 6466,
      "▁Gen": 6467,
      "ife.": 6468,
      "▁at?": 6469,
      "▁Ren": 6470,
      "▁Ele": 6471,
      "▁process": 6472,
      "▁over?": 6473,
      "aced": 6474,
      "▁Inst": 6475,
      "▁huge": 6476,
      "▁away!": 6477,
      "▁waiting.": 6478,
      "▁great!": 6479,
      "▁Going": 6480,
      "▁moves": 6481,
      "ivid": 6482,
      "▁answers": 6483,
      "▁movies.": 6484,
      "▁Grant": 6485,
      "ology": 6486,
      "▁seriously": 6487,
      "▁selling": 6488,
      "▁Annie": 6489,
      "board": 6490,
      "▁escape": 6491,
      "▁autom": 6492,
      "▁frighten": 6493,
      "▁early.": 6494,
      "▁camera": 6495,
      "▁health": 6496,
      "▁Starfleet": 6497,
      "-A": 6498,
      "-M": 6499,
      "-out": 6500,
      "Th": 6501,
      "book": 6502,
      "pet": 6503,
      "pt.": 6504,
      "▁tur": 6505,
      "▁mile": 6506,
      "▁bond": 6507,
      "▁bord": 6508,
      "▁bang": 6509,
      "▁fought": 6510,
      "▁list.": 6511,
      "▁Wend": 6512,
      "▁hy": 6513,
      "▁Mau": 6514,
      "▁Mos": 6515,
      "▁analy": 6516,
      "▁Ok.": 6517,
      "raw": 6518,
      "▁Fig": 6519,
      "ake?": 6520,
      "istol": 6521,
      "▁mann": 6522,
      "▁whoever": 6523,
      "ages.": 6524,
      "▁look?": 6525,
      "▁age.": 6526,
      "▁affect": 6527,
      "▁puts": 6528,
      "cient": 6529,
      "▁cares": 6530,
      "▁Goodnight": 6531,
      "ordin": 6532,
      "▁Chick": 6533,
      "▁suppose.": 6534,
      "▁impro": 6535,
      "ise?": 6536,
      "▁heard.": 6537,
      "▁baby?": 6538,
      "▁check.": 6539,
      "▁please!": 6540,
      "▁joint": 6541,
      "▁Suz": 6542,
      "▁pain.": 6543,
      "▁Bye.": 6544,
      "▁eighty": 6545,
      "▁Eliz": 6546,
      "▁true?": 6547,
      "▁Plan": 6548,
      "▁Louis.": 6549,
      "▁Command": 6550,
      "▁dangerous.": 6551,
      "▁bag.": 6552,
      "▁weapon": 6553,
      "▁approach": 6554,
      "▁Craig": 6555,
      "▁divorce": 6556,
      "▁vacation": 6557,
      "▁Court": 6558,
      "▁language": 6559,
      "▁understood": 6560,
      "▁influ": 6561,
      "lcome.": 6562,
      "▁lousy": 6563,
      "IGH": 6564,
      "O.": 6565,
      "ks.": 6566,
      "pent": 6567,
      "▁tied": 6568,
      "▁win.": 6569,
      "▁sem": 6570,
      "▁youre": 6571,
      "▁met.": 6572,
      "▁theat": 6573,
      "▁lack": 6574,
      "▁Wade": 6575,
      "▁it--": 6576,
      "▁Sally": 6577,
      "▁Ham": 6578,
      "▁Men": 6579,
      "▁Mus": 6580,
      "▁NE": 6581,
      "▁BE": 6582,
      "▁Bus": 6583,
      "▁Buck": 6584,
      "▁re-": 6585,
      "▁Cole": 6586,
      "▁stood": 6587,
      "▁Lots": 6588,
      "▁all...": 6589,
      "▁Faith": 6590,
      "venge": 6591,
      "▁themselves": 6592,
      "ureau": 6593,
      "▁So.": 6594,
      "▁prob": 6595,
      "▁vot": 6596,
      "▁Starl": 6597,
      "▁happening.": 6598,
      "▁happening?": 6599,
      "▁blond": 6600,
      "▁coinc": 6601,
      "▁carried": 6602,
      "ip.": 6603,
      "▁Marc": 6604,
      "▁Mary.": 6605,
      "▁bad?": 6606,
      "▁monster": 6607,
      "▁Johnson": 6608,
      "ance?": 6609,
      "▁hundred.": 6610,
      "▁Dad?": 6611,
      "▁pleasure.": 6612,
      "▁explos": 6613,
      "▁twenty-five": 6614,
      "▁Mommy": 6615,
      "▁pictures.": 6616,
      "▁record.": 6617,
      "▁excell": 6618,
      "▁fixed": 6619,
      "▁Commander": 6620,
      "▁growing": 6621,
      "▁kicked": 6622,
      "▁changed.": 6623,
      "▁Honest": 6624,
      "▁thrown": 6625,
      "▁robber": 6626,
      "▁deny": 6627,
      "▁Helen": 6628,
      "▁create": 6629,
      "▁Child": 6630,
      "-sh": 6631,
      "ially": 6632,
      "iving": 6633,
      "ker": 6634,
      "mo": 6635,
      "ule": 6636,
      "▁dy": 6637,
      "▁dea": 6638,
      "▁gain": 6639,
      "▁frank": 6640,
      "▁WE": 6641,
      "▁north": 6642,
      "▁pal.": 6643,
      "▁pounds": 6644,
      "▁Top": 6645,
      "eteen": 6646,
      "▁Sel": 6647,
      "ash.": 6648,
      "▁Home": 6649,
      "▁Hanna": 6650,
      "▁unt": 6651,
      "▁Meet": 6652,
      "--but": 6653,
      "▁Book": 6654,
      "▁Heaven": 6655,
      "▁are!": 6656,
      "▁likely": 6657,
      "▁shift": 6658,
      "▁whenever": 6659,
      "▁spoken": 6660,
      "obb": 6661,
      "izing": 6662,
      "▁unha": 6663,
      "▁unfortun": 6664,
      "▁well?": 6665,
      "▁last.": 6666,
      "▁Marg": 6667,
      "▁planned": 6668,
      "▁clearly": 6669,
      "▁mostly": 6670,
      "▁challen": 6671,
      "▁Please!": 6672,
      "▁point?": 6673,
      "▁buying": 6674,
      "▁Jimmy.": 6675,
      "▁considered": 6676,
      "▁nobody's": 6677,
      "▁official": 6678,
      "▁practice": 6679,
      "▁market": 6680,
      "▁cousin": 6681,
      "▁Mitchell": 6682,
      "▁knowledge": 6683,
      "▁recommend": 6684,
      "▁diamond": 6685,
      "▁sonofab": 6686,
      "'RE": 6687,
      "UN": 6688,
      "rem": 6689,
      "▁some.": 6690,
      "ised.": 6691,
      "▁fal": 6692,
      "arn": 6693,
      "▁Mm": 6694,
      "▁Number": 6695,
      "▁Dat": 6696,
      "amp.": 6697,
      "▁Gab": 6698,
      "▁get.": 6699,
      "▁Pos": 6700,
      "une": 6701,
      "ila": 6702,
      "▁Emp": 6703,
      "▁novel": 6704,
      "ula": 6705,
      "▁proced": 6706,
      "resp": 6707,
      "ress?": 6708,
      "▁Whoever": 6709,
      "▁<u>s": 6710,
      "▁poet": 6711,
      "▁new.": 6712,
      "▁cru": 6713,
      "mm.": 6714,
      "▁trigg": 6715,
      "▁difference.": 6716,
      "▁Clark": 6717,
      "▁Jesse": 6718,
      "▁hot.": 6719,
      "▁Wait!": 6720,
      "▁apart.": 6721,
      "▁law.": 6722,
      "▁brave": 6723,
      "▁fella": 6724,
      "▁dinner?": 6725,
      "ished.": 6726,
      "▁Plus": 6727,
      "▁artist": 6728,
      "▁doin'?": 6729,
      "▁smart.": 6730,
      "▁David.": 6731,
      "▁English.": 6732,
      "▁Glad": 6733,
      "▁ground.": 6734,
      "▁finished.": 6735,
      "▁Simone": 6736,
      "▁popular": 6737,
      "▁avail": 6738,
      "▁Congress": 6739,
      "▁bathroom.": 6740,
      "▁Apparently": 6741,
      "▁Roger": 6742,
      "▁d'you": 6743,
      "▁Ryan": 6744,
      "▁sweetheart": 6745,
      "▁garden": 6746,
      "▁video": 6747,
      "▁disease": 6748,
      "▁Clarence": 6749,
      "▁extremely": 6750,
      "-ass": 6751,
      "7.": 6752,
      "case": 6753,
      "look": 6754,
      "he's": 6755,
      "▁these.": 6756,
      "▁bail": 6757,
      "▁chat": 6758,
      "▁ox": 6759,
      "ar?": 6760,
      "st.": 6761,
      "ston": 6762,
      "▁hous": 6763,
      "▁hidden": 6764,
      "▁Sue": 6765,
      "▁Said": 6766,
      "▁Hand": 6767,
      "▁Hol": 6768,
      "▁MY": 6769,
      "▁ep": 6770,
      "▁abandon": 6771,
      "hop": 6772,
      "▁wanting": 6773,
      "▁Pea": 6774,
      "▁Follow": 6775,
      "▁somebody.": 6776,
      "▁alarm": 6777,
      "▁rate": 6778,
      "el?": 6779,
      "▁talk?": 6780,
      "apt": 6781,
      "▁Vinc": 6782,
      "▁Vik": 6783,
      "▁people's": 6784,
      "▁feel.": 6785,
      "rance": 6786,
      "▁sir...": 6787,
      "▁Goodbye.": 6788,
      "▁hear?": 6789,
      "▁suppl": 6790,
      "▁Marsh": 6791,
      "▁leave?": 6792,
      "▁ready?": 6793,
      "▁Ass": 6794,
      "▁desire": 6795,
      "▁dreams.": 6796,
      "▁oblig": 6797,
      "▁dogs": 6798,
      "▁Never.": 6799,
      "▁terribly": 6800,
      "▁members": 6801,
      "▁foreign": 6802,
      "▁quickly": 6803,
      "▁Eddie.": 6804,
      "▁demon": 6805,
      "▁Sonny": 6806,
      "▁damage": 6807,
      "▁idiot.": 6808,
      "▁Susan": 6809,
      "▁INT.": 6810,
      "▁silly.": 6811,
      "▁neighborhood": 6812,
      "▁immediately.": 6813,
      "▁terrific": 6814,
      "▁stomach": 6815,
      "▁original": 6816,
      "▁brilliant": 6817,
      "▁material": 6818,
      "▁unusual": 6819,
      "▁Elizab": 6820,
      "'a": 6821,
      "5.": 6822,
      "bur": 6823,
      "cue": 6824,
      "dom": 6825,
      "gy": 6826,
      "oved": 6827,
      "uh.": 6828,
      "▁ves": 6829,
      "▁wip": 6830,
      "▁mic": 6831,
      "itive.": 6832,
      "▁thumb": 6833,
      "▁Sort": 6834,
      "▁Hun": 6835,
      "sey": 6836,
      "▁Nine": 6837,
      "▁Bost": 6838,
      "▁stret": 6839,
      "▁Heather": 6840,
      "road": 6841,
      "▁Pap": 6842,
      "iles": 6843,
      "igger": 6844,
      "▁exerc": 6845,
      "▁agreed": 6846,
      "bered": 6847,
      "▁called.": 6848,
      "ine's": 6849,
      "▁killer.": 6850,
      "▁clock": 6851,
      "▁UP": 6852,
      "▁U.S.": 6853,
      "▁Whose": 6854,
      "▁night...": 6855,
      "range": 6856,
      "▁believe.": 6857,
      "ments.": 6858,
      "▁swell": 6859,
      "▁assure": 6860,
      "▁grant": 6861,
      "▁crit": 6862,
      "▁clear.": 6863,
      "▁ended": 6864,
      "▁gun?": 6865,
      "▁Leo": 6866,
      "▁somebody's": 6867,
      "▁speaking": 6868,
      "▁Sir?": 6869,
      "▁determ": 6870,
      "▁milk": 6871,
      "▁leads": 6872,
      "▁tape.": 6873,
      "▁Princess": 6874,
      "▁Major.": 6875,
      "▁laughing": 6876,
      "▁Madame": 6877,
      "▁self-": 6878,
      "▁batter": 6879,
      "▁political": 6880,
      "▁Francis": 6881,
      "▁horses": 6882,
      "▁Nathan": 6883,
      "▁nuclear": 6884,
      "▁DON'T": 6885,
      "NA": 6886,
      "don't": 6887,
      "ling.": 6888,
      "riss": 6889,
      "uz": 6890,
      "▁vers": 6891,
      "▁wet": 6892,
      "▁cards": 6893,
      "▁gall": 6894,
      "▁fishing": 6895,
      "▁nons": 6896,
      "▁pistol": 6897,
      "▁oc": 6898,
      "▁thy": 6899,
      "ased": 6900,
      "▁eff": 6901,
      "▁Name": 6902,
      "▁Both": 6903,
      "▁Dian": 6904,
      "elle": 6905,
      "hod": 6906,
      "ction.": 6907,
      "▁Rub": 6908,
      "ive?": 6909,
      "ists.": 6910,
      "▁...You": 6911,
      "ittee": 6912,
      "▁working.": 6913,
      "▁lets": 6914,
      "▁kills": 6915,
      "▁quit.": 6916,
      "▁Anne": 6917,
      "▁Being": 6918,
      "▁after.": 6919,
      "▁isn't.": 6920,
      "▁princi": 6921,
      "▁slave": 6922,
      "▁attorney": 6923,
      "▁ends": 6924,
      "▁half.": 6925,
      "▁team.": 6926,
      "▁streets": 6927,
      "▁present.": 6928,
      "▁faster": 6929,
      "enny.": 6930,
      "▁mistak": 6931,
      "▁everybody's": 6932,
      "▁Edward": 6933,
      "▁transm": 6934,
      "▁counsel": 6935,
      "▁responsibil": 6936,
      "▁Santa": 6937,
      "▁Otherwise": 6938,
      "▁Doug": 6939,
      "▁newspaper": 6940,
      "▁complicated": 6941,
      "▁scratch": 6942,
      "▁Hope": 6943,
      "▁Japan": 6944,
      "▁vessel": 6945,
      "-C": 6946,
      "-old": 6947,
      "4.": 6948,
      "No": 6949,
      "ey?": 6950,
      "mond": 6951,
      "tor": 6952,
      "xt.": 6953,
      "▁aim": 6954,
      "▁wag": 6955,
      "▁mask": 6956,
      "▁cong": 6957,
      "▁cere": 6958,
      "▁gal": 6959,
      "▁fasc": 6960,
      "▁las": 6961,
      "▁Wanna": 6962,
      "▁While": 6963,
      "▁Wonder": 6964,
      "otch": 6965,
      "▁Terry": 6966,
      "▁ol'": 6967,
      "▁horr": 6968,
      "▁bein'": 6969,
      "▁Met": 6970,
      "▁Natur": 6971,
      "ribut": 6972,
      "▁C.": 6973,
      "▁CH": 6974,
      "▁Coun": 6975,
      "▁anx": 6976,
      "irteen": 6977,
      "▁Lemme": 6978,
      "▁all!": 6979,
      "▁FOR": 6980,
      "▁That'll": 6981,
      "ack.": 6982,
      "▁one!": 6983,
      "▁manage": 6984,
      "▁goodbye": 6985,
      "▁spring": 6986,
      "▁Whoa": 6987,
      "▁Canad": 6988,
      "▁live?": 6989,
      "▁Force": 6990,
      "awn": 6991,
      "▁crash": 6992,
      "▁insane.": 6993,
      "▁Brook": 6994,
      "▁Expl": 6995,
      "▁cutting": 6996,
      "▁guns.": 6997,
      "▁Please...": 6998,
      "▁books.": 6999,
      "▁troub": 7000,
      "▁Daddy.": 7001,
      "▁order.": 7002,
      "clus": 7003,
      "▁fully": 7004,
      "▁Jim.": 7005,
      "▁honey?": 7006,
      "▁experienc": 7007,
      "▁music.": 7008,
      "▁grandfather": 7009,
      "▁writer": 7010,
      "▁bothering": 7011,
      "▁spending": 7012,
      "▁convince": 7013,
      "-off": 7014,
      "▁nuts": 7015,
      "▁story?": 7016,
      "▁solid": 7017,
      "▁screwed": 7018,
      "▁Jewish": 7019,
      "▁type.": 7020,
      "▁Police": 7021,
      "▁Majesty": 7022,
      "▁Veron": 7023,
      "▁Taylor": 7024,
      "▁telephone": 7025,
      "▁stolen": 7026,
      "We": 7027,
      "m?": 7028,
      "oy.": 7029,
      "▁'s": 7030,
      "in's": 7031,
      "ination.": 7032,
      "▁dying.": 7033,
      "▁bes": 7034,
      "▁billion": 7035,
      "▁tool": 7036,
      "▁tooth": 7037,
      "▁foc": 7038,
      "▁nun": 7039,
      "▁pit": 7040,
      "▁pants": 7041,
      "▁T.": 7042,
      "▁horn": 7043,
      "▁in!": 7044,
      "iding": 7045,
      "uts": 7046,
      "oose.": 7047,
      "▁libr": 7048,
      "▁living.": 7049,
      "▁CI": 7050,
      "▁Cather": 7051,
      "irt.": 7052,
      "hole": 7053,
      "ilar": 7054,
      "▁...S": 7055,
      "▁...the": 7056,
      "▁sacri": 7057,
      "▁can't...": 7058,
      "▁contain": 7059,
      "▁workin'": 7060,
      "▁shoulda": 7061,
      "▁ever.": 7062,
      "▁kinds": 7063,
      "▁swing": 7064,
      "▁swallow": 7065,
      "▁smile": 7066,
      "▁Ready": 7067,
      "▁grateful": 7068,
      "ublic": 7069,
      "man's": 7070,
      "▁philos": 7071,
      "▁clever": 7072,
      "ister.": 7073,
      "▁Close": 7074,
      "▁woman's": 7075,
      "print": 7076,
      "▁possibil": 7077,
      "▁lesson": 7078,
      "▁balls": 7079,
      "▁throwing": 7080,
      "▁Again": 7081,
      "▁wall.": 7082,
      "▁30": 7083,
      "▁darling": 7084,
      "▁educ": 7085,
      "▁Miles.": 7086,
      "▁birds": 7087,
      "▁filled": 7088,
      "▁Robins": 7089,
      "▁example": 7090,
      "▁partner.": 7091,
      "▁counter": 7092,
      "▁Greg": 7093,
      "▁London": 7094,
      "▁Special": 7095,
      "▁transport": 7096,
      "AK": 7097,
      "cred": 7098,
      "eb": 7099,
      "how.": 7100,
      "sed": 7101,
      "hem": 7102,
      "▁I--": 7103,
      "▁somed": 7104,
      "▁du": 7105,
      "ites": 7106,
      "▁toss": 7107,
      "▁fag": 7108,
      "▁and--": 7109,
      "▁M.": 7110,
      "▁Mike.": 7111,
      "▁Nav": 7112,
      "▁for...": 7113,
      "▁DE": 7114,
      "▁--I": 7115,
      "▁Oper": 7116,
      "alley": 7117,
      "roc": 7118,
      "▁outf": 7119,
      "▁Friend": 7120,
      "▁Rip": 7121,
      "ility.": 7122,
      "▁...H": 7123,
      "▁...w": 7124,
      "icked": 7125,
      "▁Kim": 7126,
      "bert.": 7127,
      "▁years?": 7128,
      "▁below": 7129,
      "▁assass": 7130,
      "▁surge": 7131,
      "▁commer": 7132,
      "▁four.": 7133,
      "▁pleased": 7134,
      "▁Fuckin'": 7135,
      "▁enter": 7136,
      "ension": 7137,
      "▁files": 7138,
      "▁painting": 7139,
      "▁Herr": 7140,
      "▁student": 7141,
      "▁information.": 7142,
      "-look": 7143,
      "▁Mother.": 7144,
      "ropri": 7145,
      "▁voice.": 7146,
      "▁box.": 7147,
      "▁involved.": 7148,
      "-three": 7149,
      "▁veh": 7150,
      "▁appears": 7151,
      "▁James.": 7152,
      "▁hunting": 7153,
      "▁Sarah": 7154,
      "▁romantic": 7155,
      "▁sweetheart.": 7156,
      "▁female": 7157,
      "▁restaurant": 7158,
      "▁Sergeant": 7159,
      "▁Jacquel": 7160,
      "▁Caesar": 7161,
      "ne.": 7162,
      "inos": 7163,
      "ont.": 7164,
      "▁diss": 7165,
      "▁dirt": 7166,
      "▁burg": 7167,
      "▁cave": 7168,
      "▁nor": 7169,
      "▁nap": 7170,
      "▁por": 7171,
      "▁Year": 7172,
      "arily": 7173,
      "▁Sing": 7174,
      "idering": 7175,
      "ley?": 7176,
      "imm": 7177,
      "▁Mis": 7178,
      "▁Ma.": 7179,
      "▁National": 7180,
      "▁Duff": 7181,
      "▁Theo": 7182,
      "▁Cos": 7183,
      "enth": 7184,
      "enty.": 7185,
      "ential": 7186,
      "▁outa": 7187,
      "▁Free": 7188,
      "▁Rose.": 7189,
      "oret": 7190,
      "▁shel": 7191,
      "▁They'd": 7192,
      "icks": 7193,
      "▁down...": 7194,
      "▁cloud": 7195,
      "▁wherever": 7196,
      "▁screen": 7197,
      "▁friends?": 7198,
      "cience": 7199,
      "▁care?": 7200,
      "▁Hey...": 7201,
      "▁hear.": 7202,
      "▁life!": 7203,
      "▁enough?": 7204,
      "▁money...": 7205,
      "▁boy!": 7206,
      "▁crook": 7207,
      "▁served": 7208,
      "▁pretty.": 7209,
      "▁someone's": 7210,
      "▁Club": 7211,
      "▁Ord": 7212,
      "▁Twelve": 7213,
      "▁priest": 7214,
      "▁business?": 7215,
      "▁awhile": 7216,
      "▁passing": 7217,
      "▁skill": 7218,
      "▁die?": 7219,
      "▁Peter.": 7220,
      "▁leading": 7221,
      "▁current": 7222,
      "▁born.": 7223,
      "▁statement": 7224,
      "▁rules.": 7225,
      "▁Patrick": 7226,
      "▁surviv": 7227,
      "▁photograph": 7228,
      "▁frightened": 7229,
      "-in-law": 7230,
      "▁responsibility": 7231,
      "▁ignor": 7232,
      "▁Federation": 7233,
      "▁throat": 7234,
      "▁appointment": 7235,
      "▁Thursday": 7236,
      "▁Virgin": 7237,
      "▁Officer": 7238,
      "▁c'mon": 7239,
      "▁Florid": 7240,
      "▁Pardon": 7241,
      ":3": 7242,
      "IE": 7243,
      "eed": 7244,
      "▁`": 7245,
      "▁ten.": 7246,
      "▁tub": 7247,
      "head.": 7248,
      "ini": 7249,
      "inting": 7250,
      "reg": 7251,
      "▁mess.": 7252,
      "▁theory": 7253,
      "▁dum": 7254,
      "▁cult": 7255,
      "▁Wrong": 7256,
      "▁Tor": 7257,
      "ators": 7258,
      "▁beer.": 7259,
      "▁Alf": 7260,
      "lead": 7261,
      "▁dope": 7262,
      "▁welcome.": 7263,
      "▁Moll": 7264,
      "▁reward": 7265,
      "▁Corn": 7266,
      "ica.": 7267,
      "▁Whatta": 7268,
      "aming": 7269,
      "▁Lyd": 7270,
      "▁Pal": 7271,
      "▁Port": 7272,
      "▁And?": 7273,
      "▁existen": 7274,
      "▁conce": 7275,
      "▁should.": 7276,
      "▁am?": 7277,
      "play": 7278,
      "▁Viet": 7279,
      "▁<u>p": 7280,
      "▁An'": 7281,
      "▁unp": 7282,
      "▁arch": 7283,
      "▁crap.": 7284,
      "▁function": 7285,
      "▁shake": 7286,
      "▁Listen.": 7287,
      "▁terms": 7288,
      "ered.": 7289,
      "▁Huh.": 7290,
      "▁instruction": 7291,
      "▁paper.": 7292,
      "▁testim": 7293,
      "▁exchan": 7294,
      "▁cleaning": 7295,
      "▁families": 7296,
      "ipper": 7297,
      "▁Paris.": 7298,
      "▁fair.": 7299,
      "▁nuts.": 7300,
      "▁judg": 7301,
      "▁correct.": 7302,
      "▁weekend.": 7303,
      "▁upstairs.": 7304,
      "▁incredible": 7305,
      "▁becoming": 7306,
      "▁Forty": 7307,
      "▁creep": 7308,
      "▁lifet": 7309,
      "▁Benjamin": 7310,
      "▁Chicago": 7311,
      "▁emotional": 7312,
      "▁seventeen": 7313,
      "▁guarantee": 7314,
      "▁oxyg": 7315,
      "▁sacrif": 7316,
      "-S": 7317,
      "iven": 7318,
      "s--": 7319,
      "ship": 7320,
      "ura": 7321,
      "▁wide": 7322,
      "▁you...?": 7323,
      "▁mer": 7324,
      "anks": 7325,
      "▁fake": 7326,
      "▁pour": 7327,
      "▁thrill": 7328,
      "▁of?": 7329,
      "▁me--": 7330,
      "uther": 7331,
      "verage": 7332,
      "▁LO": 7333,
      "▁Gall": 7334,
      "hern": 7335,
      "▁Ju": 7336,
      "▁Peel": 7337,
      "▁Andrew": 7338,
      "▁suit.": 7339,
      "▁deb": 7340,
      "ush.": 7341,
      "▁altern": 7342,
      "▁...What": 7343,
      "▁Howard": 7344,
      "▁means.": 7345,
      "▁fuck.": 7346,
      "▁virt": 7347,
      "acher": 7348,
      "▁again...": 7349,
      "▁mustn't": 7350,
      "▁Inspect": 7351,
      "▁kid?": 7352,
      "▁chances": 7353,
      "▁things...": 7354,
      "▁trained": 7355,
      "▁Also": 7356,
      "▁okay...": 7357,
      "▁John?": 7358,
      "▁shame": 7359,
      "▁Will.": 7360,
      "ches.": 7361,
      "▁Claire": 7362,
      "▁desp": 7363,
      "▁eye.": 7364,
      "▁deal?": 7365,
      "▁Jackie": 7366,
      "-five.": 7367,
      "rugg": 7368,
      "▁Jesus...": 7369,
      "▁chocol": 7370,
      "▁learning": 7371,
      "▁charm": 7372,
      "▁reserv": 7373,
      "▁minute!": 7374,
      "ooth": 7375,
      "▁Elaine": 7376,
      "▁grandmother": 7377,
      "▁parents.": 7378,
      "▁OK?": 7379,
      "▁soldier": 7380,
      "▁service.": 7381,
      "▁crying": 7382,
      "▁Father.": 7383,
      "▁oppos": 7384,
      "▁moral": 7385,
      "▁pussy": 7386,
      "▁neither.": 7387,
      "▁pupp": 7388,
      "▁Monday": 7389,
      "▁liter": 7390,
      "▁tongue": 7391,
      "▁occasion": 7392,
      "▁nasty": 7393,
      "▁Jabez": 7394,
      "▁effort": 7395,
      "3.": 7396,
      "That": 7397,
      "hile.": 7398,
      "▁ut": 7399,
      "▁tab": 7400,
      "heart": 7401,
      "▁wid": 7402,
      "▁wand": 7403,
      "hal": 7404,
      "oned": 7405,
      "▁to--": 7406,
      "▁cri": 7407,
      "▁cure": 7408,
      "▁fancy": 7409,
      "▁ly": 7410,
      "▁Wed": 7411,
      "▁pizz": 7412,
      "▁Tony": 7413,
      "▁hack": 7414,
      "atory": 7415,
      "▁Hum": 7416,
      "▁Mass": 7417,
      "sequ": 7418,
      "▁review": 7419,
      "▁replace": 7420,
      "▁golf": 7421,
      "enture": 7422,
      "▁Lot": 7423,
      "▁Hear": 7424,
      "▁Fam": 7425,
      "▁Fall": 7426,
      "▁Ret": 7427,
      "▁Rad": 7428,
      "▁butter": 7429,
      "▁delic": 7430,
      "▁rush": 7431,
      "▁sew": 7432,
      "▁comple": 7433,
      "ittin'": 7434,
      "▁spr": 7435,
      "▁trunk": 7436,
      "▁ourselves.": 7437,
      "▁muse": 7438,
      "▁<u>t": 7439,
      "▁Look!": 7440,
      "▁brown": 7441,
      "▁better?": 7442,
      "▁party?": 7443,
      "▁these?": 7444,
      "▁Reed": 7445,
      "▁Marl": 7446,
      "▁rare": 7447,
      "▁race": 7448,
      "▁recent": 7449,
      "▁insist": 7450,
      "air.": 7451,
      "▁lately.": 7452,
      "▁babies": 7453,
      "▁100": 7454,
      "▁interested.": 7455,
      "▁checking": 7456,
      "▁prick": 7457,
      "▁relative": 7458,
      "▁brain.": 7459,
      "▁barg": 7460,
      "▁Says": 7461,
      "▁refuse": 7462,
      "▁misunder": 7463,
      "▁bitch!": 7464,
      "▁fingers": 7465,
      "▁animals": 7466,
      "▁birthday.": 7467,
      "▁Glenn": 7468,
      "▁Norman": 7469,
      "▁coffee?": 7470,
      "▁temper": 7471,
      "▁dancing": 7472,
      "▁earlier": 7473,
      "▁odds": 7474,
      "▁breakfast.": 7475,
      "▁Jeanne": 7476,
      "-year": 7477,
      "▁special.": 7478,
      "▁Darling": 7479,
      "▁shadow": 7480,
      "▁conduct": 7481,
      "▁Mulw": 7482,
      "9.": 7483,
      "B.": 7484,
      "EE": 7485,
      "LD": 7486,
      "M.": 7487,
      "S!": 7488,
      "rated": 7489,
      "work.": 7490,
      "yes": 7491,
      "▁teen": 7492,
      "hamed": 7493,
      "▁mental": 7494,
      "▁dies": 7495,
      "▁toy": 7496,
      "▁cert": 7497,
      "hatt": 7498,
      "▁gamb": 7499,
      "▁Ty": 7500,
      "▁Youre": 7501,
      "▁I'M": 7502,
      "key.": 7503,
      "▁Mack": 7504,
      "▁Bert": 7505,
      "▁Da": 7506,
      "▁DAY": 7507,
      "▁release": 7508,
      "▁Cre": 7509,
      "▁Ol": 7510,
      "▁Light": 7511,
      "ion!": 7512,
      "▁Fore": 7513,
      "il?": 7514,
      "uck.": 7515,
      "▁says.": 7516,
      "▁sayin'": 7517,
      "▁loan": 7518,
      "▁However": 7519,
      "aged": 7520,
      "▁Sheld": 7521,
      "▁Mrs": 7522,
      "▁'M": 7523,
      "aches": 7524,
      "▁said?": 7525,
      "▁days?": 7526,
      "▁impul": 7527,
      "▁rack": 7528,
      "▁headache": 7529,
      "▁funny?": 7530,
      "▁tries": 7531,
      "▁setting": 7532,
      "▁Atl": 7533,
      "▁fourteen": 7534,
      "▁ordinary": 7535,
      "▁sky": 7536,
      "▁confident": 7537,
      "▁phone?": 7538,
      "▁Barn": 7539,
      "▁Barbar": 7540,
      "▁papers.": 7541,
      "▁subst": 7542,
      "▁regard": 7543,
      "▁defense": 7544,
      "▁number?": 7545,
      "▁building.": 7546,
      "▁closed.": 7547,
      "▁individ": 7548,
      "ipping": 7549,
      "▁Jeff.": 7550,
      "▁attacked": 7551,
      "▁NOW": 7552,
      "▁laugh.": 7553,
      "▁Shouldn't": 7554,
      "▁motor": 7555,
      "▁Eve.": 7556,
      "▁soul.": 7557,
      "▁jacket": 7558,
      "▁herself.": 7559,
      "▁flowers": 7560,
      "▁Mexico": 7561,
      "▁smoking": 7562,
      "▁ninety": 7563,
      "▁Shoot": 7564,
      "▁degre": 7565,
      "uva": 7566,
      "▁million.": 7567,
      "▁Texas": 7568,
      "▁desperate": 7569,
      "▁O.K.": 7570,
      "▁document": 7571,
      "▁Jeffrey.": 7572,
      "▁Wednes": 7573,
      "cop": 7574,
      "cer.": 7575,
      "f.": 7576,
      "gie": 7577,
      "kin": 7578,
      "kind": 7579,
      "lin.": 7580,
      "ino.": 7581,
      "▁ye": 7582,
      "▁gy": 7583,
      "▁gimme": 7584,
      "▁link": 7585,
      "▁lap": 7586,
      "▁nick": 7587,
      "keep": 7588,
      "▁Mem": 7589,
      "▁Nort": 7590,
      "▁Nik": 7591,
      "▁B.": 7592,
      "▁Break": 7593,
      "▁Bank": 7594,
      "▁read.": 7595,
      "▁Ou": 7596,
      "▁jury": 7597,
      "ch?": 7598,
      "▁Gentle": 7599,
      "holic": 7600,
      "▁Jill": 7601,
      "tering": 7602,
      "▁worm": 7603,
      "▁Emm": 7604,
      "▁seat.": 7605,
      "▁thing!": 7606,
      "ation...": 7607,
      "▁really...": 7608,
      "▁bless": 7609,
      "▁blast": 7610,
      "▁thoughts": 7611,
      "▁feel?": 7612,
      "pert": 7613,
      "▁argue": 7614,
      "▁finan": 7615,
      "▁Margo": 7616,
      "▁world's": 7617,
      "▁cruel": 7618,
      "▁Amy": 7619,
      "▁clean.": 7620,
      "▁Clay": 7621,
      "▁chasing": 7622,
      "▁standard": 7623,
      "▁woman?": 7624,
      "▁territ": 7625,
      "▁Univers": 7626,
      "▁forget.": 7627,
      "▁Mom?": 7628,
      "▁Screw": 7629,
      "▁family?": 7630,
      "▁goddamned": 7631,
      "▁serious?": 7632,
      "▁doctor?": 7633,
      "▁Commun": 7634,
      "▁attack.": 7635,
      "▁center": 7636,
      "▁Fredd": 7637,
      "▁solut": 7638,
      "▁edge": 7639,
      "▁changes": 7640,
      "▁stealing": 7641,
      "▁value": 7642,
      "▁garage": 7643,
      "▁manager": 7644,
      "▁relax.": 7645,
      "▁necessary.": 7646,
      "▁fortune": 7647,
      "▁caused": 7648,
      "▁sweet.": 7649,
      "▁reputation": 7650,
      "▁makin'": 7651,
      "-1": 7652,
      "R.": 7653,
      "RY": 7654,
      "eer": 7655,
      "led.": 7656,
      "maybe": 7657,
      "▁bury": 7658,
      "▁Tar": 7659,
      "▁Ted.": 7660,
      "▁Times": 7661,
      "▁thin": 7662,
      "▁Sol": 7663,
      "als.": 7664,
      "▁Dign": 7665,
      "▁Dark": 7666,
      "▁Dude.": 7667,
      "▁lip": 7668,
      "▁Camp": 7669,
      "▁jung": 7670,
      "▁ashamed": 7671,
      "▁Row": 7672,
      "ores": 7673,
      "▁dece": 7674,
      "ushed": 7675,
      "▁rug": 7676,
      "▁Kiss": 7677,
      "▁Kurt": 7678,
      "▁'n": 7679,
      "▁Stone": 7680,
      "▁mole": 7681,
      "▁clown": 7682,
      "▁uncom": 7683,
      "▁parts": 7684,
      "▁Goodnight.": 7685,
      "▁owns": 7686,
      "▁trace": 7687,
      "▁traffic": 7688,
      "▁jobs": 7689,
      "▁monst": 7690,
      "▁monkey": 7691,
      "▁hundreds": 7692,
      "▁bothered": 7693,
      "▁reasons": 7694,
      "▁fact.": 7695,
      "▁touch.": 7696,
      "▁piece.": 7697,
      "▁intern": 7698,
      "▁Baron": 7699,
      "▁male": 7700,
      "gram.": 7701,
      "▁land.": 7702,
      "▁angry.": 7703,
      "▁McM": 7704,
      "▁NO!": 7705,
      "▁truck.": 7706,
      "▁arrested": 7707,
      "▁gold.": 7708,
      "▁Williams": 7709,
      "▁connection": 7710,
      "▁cowboy": 7711,
      "▁eggs": 7712,
      "▁Fifteen": 7713,
      "▁audience": 7714,
      "▁guts": 7715,
      "▁Obvious": 7716,
      "▁Jerry.": 7717,
      "▁becomes": 7718,
      "believ": 7719,
      "▁expensive": 7720,
      "ique": 7721,
      "▁According": 7722,
      "▁chemical": 7723,
      "▁behavior": 7724,
      "▁garbage": 7725,
      "▁Jennif": 7726,
      "▁soldiers": 7727,
      "▁occup": 7728,
      "-H": 7729,
      "bs": 7730,
      "da": 7731,
      "kins": 7732,
      "m...": 7733,
      "nn": 7734,
      "oom": 7735,
      "pting": 7736,
      "time.": 7737,
      "▁tag": 7738,
      "▁Ira": 7739,
      "▁mart": 7740,
      "▁dude": 7741,
      "▁dance.": 7742,
      "ita": 7743,
      "▁gor": 7744,
      "▁gig": 7745,
      "▁Tow": 7746,
      "ary?": 7747,
      "▁hitting": 7748,
      "ashing": 7749,
      "▁Ah.": 7750,
      "▁Mall": 7751,
      "▁Bor": 7752,
      "▁Bast": 7753,
      "▁lies": 7754,
      "▁Cow": 7755,
      "▁strugg": 7756,
      "▁any.": 7757,
      "▁have...": 7758,
      "▁LA": 7759,
      "▁Lucky": 7760,
      "▁area.": 7761,
      "▁next.": 7762,
      "▁aside": 7763,
      "▁Pay": 7764,
      "▁at.": 7765,
      "▁And...": 7766,
      "▁Et": 7767,
      "▁Earth.": 7768,
      "ist?": 7769,
      "▁or...": 7770,
      "▁Thor": 7771,
      "na.": 7772,
      "▁good!": 7773,
      "▁Stew": 7774,
      "▁<b>": 7775,
      "ples": 7776,
      "▁years...": 7777,
      "▁<u>f": 7778,
      "epend": 7779,
      "▁believes": 7780,
      "▁shit...": 7781,
      "▁play?": 7782,
      "▁rap": 7783,
      "▁meeting.": 7784,
      "▁adjust": 7785,
      "▁missing.": 7786,
      "▁yes?": 7787,
      "▁six.": 7788,
      "▁brother?": 7789,
      "▁hurt?": 7790,
      "▁younger": 7791,
      "▁awhile.": 7792,
      "▁highly": 7793,
      "▁confus": 7794,
      "▁THIS": 7795,
      "▁rescue": 7796,
      "▁Something's": 7797,
      "▁grav": 7798,
      "▁singing": 7799,
      "▁cleaned": 7800,
      "▁explain.": 7801,
      "▁Room": 7802,
      "▁disappeared": 7803,
      "▁director": 7804,
      "▁treated": 7805,
      "▁smells": 7806,
      "▁machine.": 7807,
      "▁entirely": 7808,
      "-thousand": 7809,
      "▁treasure": 7810,
      "▁circu": 7811,
      "▁Christmas.": 7812,
      "▁School": 7813,
      "▁beginning.": 7814,
      "▁mirror": 7815,
      "▁fired.": 7816,
      "▁parking": 7817,
      "OME": 7818,
      "▁virgin": 7819,
      "▁Understand": 7820,
      "▁Street.": 7821,
      "▁homic": 7822,
      "▁Central": 7823,
      "▁holy": 7824,
      "▁volunt": 7825,
      "▁Hildy": 7826,
      "▁Enterprise": 7827,
      "▁reckon": 7828,
      "▁Tuesday": 7829,
      "▁Iraq": 7830,
      "<u>": 7831,
      "bon": 7832,
      "bro": 7833,
      "iot": 7834,
      "ius.": 7835,
      "▁wish.": 7836,
      "▁sam": 7837,
      "▁dough": 7838,
      "▁dress.": 7839,
      "▁Wind": 7840,
      "▁naked": 7841,
      "▁porn": 7842,
      "▁path": 7843,
      "ara": 7844,
      "▁key.": 7845,
      "▁You.": 7846,
      "▁Set": 7847,
      "▁Sun": 7848,
      "▁ARE": 7849,
      "ut.": 7850,
      "▁Dear": 7851,
      "▁liar.": 7852,
      "adem": 7853,
      "▁stone": 7854,
      "ion...": 7855,
      "▁get?": 7856,
      "▁Pin": 7857,
      "▁Pent": 7858,
      "our.": 7859,
      "iling": 7860,
      "▁nose.": 7861,
      "us'": 7862,
      "▁loss": 7863,
      "▁season": 7864,
      "about": 7865,
      "olt": 7866,
      "ague": 7867,
      "▁sometime": 7868,
      "▁sometime.": 7869,
      "▁progress": 7870,
      "▁Kent": 7871,
      "▁blown": 7872,
      "▁people...": 7873,
      "▁sure...": 7874,
      "▁feeling.": 7875,
      "ment?": 7876,
      "▁One.": 7877,
      "▁courage": 7878,
      "▁Chin": 7879,
      "▁act.": 7880,
      "▁actor": 7881,
      "▁cheese": 7882,
      "▁badly": 7883,
      "▁train.": 7884,
      "▁Albert": 7885,
      "▁cris": 7886,
      "▁crime.": 7887,
      "mmmm": 7888,
      "▁Surely": 7889,
      "ggy": 7890,
      "▁Johnny.": 7891,
      "ianc": 7892,
      "▁'em?": 7893,
      "▁attend": 7894,
      "▁precious": 7895,
      "▁yes!": 7896,
      "▁drinks": 7897,
      "▁empt": 7898,
      "▁yeah...": 7899,
      "▁holds": 7900,
      "▁respond": 7901,
      "▁moving.": 7902,
      "▁passport": 7903,
      "▁confidence": 7904,
      "ences": 7905,
      "▁retire": 7906,
      "▁president": 7907,
      "▁25": 7908,
      "▁secretary": 7909,
      "▁experience.": 7910,
      "▁memory.": 7911,
      "▁Quiet": 7912,
      "ette.": 7913,
      "▁handsome": 7914,
      "▁indic": 7915,
      "▁refer": 7916,
      "▁based": 7917,
      "▁corpor": 7918,
      "▁privile": 7919,
      "▁alive?": 7920,
      "▁football": 7921,
      "▁strict": 7922,
      "▁fear.": 7923,
      "▁peace.": 7924,
      "▁trees": 7925,
      "▁neighb": 7926,
      "▁model": 7927,
      "▁Serious": 7928,
      "▁arrange": 7929,
      "▁Doc.": 7930,
      "▁Detro": 7931,
      "▁screaming": 7932,
      "▁suffer": 7933,
      "▁scene.": 7934,
      "▁society": 7935,
      "▁freedom": 7936,
      "▁Imag": 7937,
      "▁psychiatrist": 7938,
      "▁sonofabitch": 7939,
      "▁Vietn": 7940,
      "house.": 7941,
      "ront": 7942,
      "▁til": 7943,
      "▁tight.": 7944,
      "inist": 7945,
      "▁witch": 7946,
      "itude.": 7947,
      "▁batt": 7948,
      "▁bored": 7949,
      "an...": 7950,
      "ange": 7951,
      "▁fart": 7952,
      "▁Yup.": 7953,
      "▁thirteen": 7954,
      "▁init": 7955,
      "iday": 7956,
      "uty": 7957,
      "▁doors": 7958,
      "▁ears": 7959,
      "▁Nah.": 7960,
      "▁knees": 7961,
      "▁reb": 7962,
      "▁Case": 7963,
      "icles": 7964,
      "▁goes.": 7965,
      "▁Gitt": 7966,
      "▁neck.": 7967,
      "rack": 7968,
      "▁Person": 7969,
      "ieu": 7970,
      "▁sugar": 7971,
      "▁End": 7972,
      "▁no?": 7973,
      "▁woulda": 7974,
      "aster.": 7975,
      "venue": 7976,
      "▁twice.": 7977,
      "▁Vul": 7978,
      "▁Viol": 7979,
      "▁coc": 7980,
      "▁scary": 7981,
      "▁girl's": 7982,
      "▁life...": 7983,
      "▁cheer": 7984,
      "▁grade": 7985,
      "▁plans.": 7986,
      "▁attitude": 7987,
      "▁listening.": 7988,
      "chest": 7989,
      "▁surround": 7990,
      "▁Nothing's": 7991,
      "▁warning": 7992,
      "▁Jack...": 7993,
      "▁rich.": 7994,
      "-fuck": 7995,
      "▁cops.": 7996,
      "▁passion": 7997,
      "▁confused": 7998,
      "▁instinct": 7999,
      "▁Jimmy?": 8000,
      "▁struck": 8001,
      "▁incident": 8002,
      "mpat": 8003,
      "▁strange.": 8004,
      "▁Conn": 8005,
      "▁Prince": 8006,
      "▁directly": 8007,
      "▁wedding.": 8008,
      "▁boyfriend.": 8009,
      "▁silver": 8010,
      "▁decision.": 8011,
      "▁depends": 8012,
      "▁talent": 8013,
      "▁nineteen": 8014,
      "▁Admiral.": 8015,
      "ross.": 8016,
      "▁Course": 8017,
      "▁including": 8018,
      "▁Gordon": 8019,
      "▁shrink": 8020,
      "▁higher": 8021,
      "▁Kirk": 8022,
      "-P": 8023,
      "?...": 8024,
      "OD": 8025,
      "aign": 8026,
      "l?": 8027,
      "oke.": 8028,
      "ware": 8029,
      "hest": 8030,
      "▁ah": 8031,
      "▁ast": 8032,
      "▁wore": 8033,
      "▁I...I": 8034,
      "have": 8035,
      "▁bun": 8036,
      "▁cared": 8037,
      "▁fish.": 8038,
      "▁fashion": 8039,
      "ory?": 8040,
      "ories": 8041,
      "▁national": 8042,
      "...the": 8043,
      "▁habit": 8044,
      "▁Hunt": 8045,
      "▁Mitch": 8046,
      "▁eh": 8047,
      "▁Dew": 8048,
      "▁liar": 8049,
      "▁lips": 8050,
      "▁LI": 8051,
      "▁ability": 8052,
      "ural": 8053,
      "▁Fer": 8054,
      "▁Eh": 8055,
      "▁button": 8056,
      "▁it's...": 8057,
      "▁lover": 8058,
      "▁coulda": 8059,
      "▁been.": 8060,
      "▁Doyle": 8061,
      "▁spill": 8062,
      "▁how.": 8063,
      "▁Karen": 8064,
      "▁need?": 8065,
      "▁call?": 8066,
      "▁Nothin'": 8067,
      "▁'The": 8068,
      "▁ways.": 8069,
      "▁ours.": 8070,
      "▁quick.": 8071,
      "▁otherwise": 8072,
      "▁Ins": 8073,
      "ish?": 8074,
      "▁real?": 8075,
      "▁action.": 8076,
      "▁prison.": 8077,
      "▁trapped": 8078,
      "▁planet.": 8079,
      "▁hurting": 8080,
      "▁dead...": 8081,
      "aughter": 8082,
      "▁Drink": 8083,
      "▁decl": 8084,
      "▁hurts": 8085,
      "▁hits": 8086,
      "▁pleasant": 8087,
      "▁points": 8088,
      "▁Arn": 8089,
      "▁reasonable": 8090,
      "▁charming": 8091,
      "▁regul": 8092,
      "▁doub": 8093,
      "▁Quick": 8094,
      "▁surprise.": 8095,
      "▁deli": 8096,
      "▁Commission": 8097,
      "▁psycho": 8098,
      "▁McK": 8099,
      "▁keys.": 8100,
      "▁Whatever.": 8101,
      "▁lawyers": 8102,
      "...we": 8103,
      "▁Sid.": 8104,
      "▁tempor": 8105,
      "▁club.": 8106,
      "▁pills": 8107,
      "▁attractive": 8108,
      "AAAA": 8109,
      "▁radio.": 8110,
      "▁Object": 8111,
      "▁Whadd": 8112,
      "▁Royal": 8113,
      "▁magazine": 8114,
      "▁provide": 8115,
      "-of-a": 8116,
      "▁safety": 8117,
      "▁Catherine": 8118,
      "IR": 8119,
      "V.": 8120,
      "i's": 8121,
      "shi": 8122,
      "te": 8123,
      "zy": 8124,
      "▁tiny": 8125,
      "▁to!": 8126,
      "ana.": 8127,
      "▁fed": 8128,
      "▁fri": 8129,
      "▁fruit": 8130,
      "▁lect": 8131,
      "▁nurs": 8132,
      "▁pee": 8133,
      "ety.": 8134,
      "arian": 8135,
      "▁healthy": 8136,
      "▁hi": 8137,
      "▁beating": 8138,
      "▁Sea": 8139,
      "▁Sign": 8140,
      "asy.": 8141,
      "out.": 8142,
      "iment.": 8143,
      "▁Mas": 8144,
      "▁Murd": 8145,
      "▁Money": 8146,
      "oops": 8147,
      "▁knight": 8148,
      "▁known.": 8149,
      "▁reached": 8150,
      "ices.": 8151,
      "▁stiff": 8152,
      "▁What...": 8153,
      "▁What'll": 8154,
      "ella": 8155,
      "▁Lill": 8156,
      "ch!": 8157,
      "iffe": 8158,
      "▁Pack": 8159,
      "ils": 8160,
      "▁worried.": 8161,
      "iece": 8162,
      "▁loving": 8163,
      "▁-": 8164,
      "▁goodbye.": 8165,
      "▁concept": 8166,
      "▁spook": 8167,
      "▁how'd": 8168,
      "▁'6": 8169,
      "▁'D": 8170,
      "▁'H": 8171,
      "▁vote": 8172,
      "▁Stu": 8173,
      "▁guys?": 8174,
      "▁Isra": 8175,
      "▁underground": 8176,
      "▁scal": 8177,
      "▁surely": 8178,
      "▁asks": 8179,
      "▁remove": 8180,
      "▁buzz": 8181,
      "▁Short": 8182,
      "▁chew": 8183,
      "▁Alice": 8184,
      "▁serial": 8185,
      "▁shak": 8186,
      "▁according": 8187,
      "▁reporter": 8188,
      "▁counting": 8189,
      "▁chap": 8190,
      "▁questions?": 8191,
      "▁joined": 8192,
      "▁town?": 8193,
      "▁Arg": 8194,
      "▁minute...": 8195,
      "▁distance": 8196,
      "▁distract": 8197,
      "▁Charles.": 8198,
      "▁tapes": 8199,
      "▁delight": 8200,
      "▁address.": 8201,
      "▁protecting": 8202,
      "ONE": 8203,
      "▁Harry?": 8204,
      "▁C'mon.": 8205,
      "▁drugs.": 8206,
      "▁Everybody's": 8207,
      "▁enjoyed": 8208,
      "▁nothin'.": 8209,
      "▁jumped": 8210,
      "▁prepare": 8211,
      "▁somethin'.": 8212,
      "▁college.": 8213,
      "▁genius": 8214,
      "▁negative": 8215,
      "▁Slow": 8216,
      "▁Priv": 8217,
      "force": 8218,
      "▁Wayne": 8219,
      "▁Linda": 8220,
      "▁Federal": 8221,
      "▁possess": 8222,
      "▁urg": 8223,
      "▁Promise": 8224,
      "▁immediately": 8225,
      "▁excellent": 8226,
      "'em": 8227,
      "*!": 8228,
      "Ne": 8229,
      "gun": 8230,
      "ze.": 8231,
      "ham.": 8232,
      "on...": 8233,
      "▁dent": 8234,
      "▁bar.": 8235,
      "anoid": 8236,
      "isher": 8237,
      "▁gear": 8238,
      "▁Wat": 8239,
      "▁Wild": 8240,
      "▁pity": 8241,
      "▁haul": 8242,
      "▁beef": 8243,
      "▁Asi": 8244,
      "▁melt": 8245,
      "rial": 8246,
      "▁Dem": 8247,
      "ady?": 8248,
      "▁stew": 8249,
      "▁stage": 8250,
      "▁What!": 8251,
      "▁ancient": 8252,
      "▁jam": 8253,
      "▁Live": 8254,
      "▁Gill": 8255,
      "▁Gib": 8256,
      "▁Prey": 8257,
      "▁RE": 8258,
      "▁Rich": 8259,
      "▁nobody.": 8260,
      "▁section": 8261,
      "quis": 8262,
      "▁conference": 8263,
      "▁space.": 8264,
      "▁you?!": 8265,
      "acy.": 8266,
      "▁clin": 8267,
      "hia": 8268,
      "▁Vick": 8269,
      "▁other?": 8270,
      "▁<u>l": 8271,
      "▁Anim": 8272,
      "▁day...": 8273,
      "▁friendly": 8274,
      "▁armed": 8275,
      "▁minute?": 8276,
      "▁flag": 8277,
      "▁shower": 8278,
      "▁money!": 8279,
      "▁baby...": 8280,
      "▁mission.": 8281,
      "▁prevent": 8282,
      "▁chain": 8283,
      "▁stands": 8284,
      "▁cute.": 8285,
      "▁river.": 8286,
      "▁Arth": 8287,
      "▁awfully": 8288,
      "ah!": 8289,
      "▁secrets": 8290,
      "▁dad's": 8291,
      "▁Trum": 8292,
      "▁Louise": 8293,
      "▁George?": 8294,
      "▁Small": 8295,
      "▁basic": 8296,
      "▁angel": 8297,
      "▁staring": 8298,
      "▁ticket.": 8299,
      "▁cigarettes": 8300,
      "▁Romeo": 8301,
      "▁kitchen.": 8302,
      "▁assistant": 8303,
      "▁airport.": 8304,
      "itution": 8305,
      "▁boring": 8306,
      "▁Vada": 8307,
      "▁separate": 8308,
      "▁Women": 8309,
      "▁toilet": 8310,
      "▁Kennedy": 8311,
      "▁equipment": 8312,
      "▁Emperor": 8313,
      "▁universe": 8314,
      "▁Mozart": 8315,
      "▁false": 8316,
      "▁fascin": 8317,
      "▁beside": 8318,
      "▁Imagine": 8319,
      "6.": 8320,
      "AC": 8321,
      "ACK": 8322,
      "ged.": 8323,
      "oe": 8324,
      "rum": 8325,
      "town.": 8326,
      "vir": 8327,
      "oud.": 8328,
      "iness.": 8329,
      "rer": 8330,
      "hand": 8331,
      "iting": 8332,
      "▁bend": 8333,
      "▁bed?": 8334,
      "▁Yess": 8335,
      "▁infect": 8336,
      "ath?": 8337,
      "▁Shar": 8338,
      "ids": 8339,
      "▁Hou": 8340,
      "▁mechan": 8341,
      "▁ult": 8342,
      "▁Makes": 8343,
      "--?": 8344,
      "▁reve": 8345,
      "▁CAN": 8346,
      "▁style": 8347,
      "▁don't?": 8348,
      "▁Gonna": 8349,
      "▁Post": 8350,
      "▁Power": 8351,
      "▁didnt": 8352,
      "▁Est": 8353,
      "▁Ed.": 8354,
      "▁defe": 8355,
      "use.": 8356,
      "▁seek": 8357,
      "▁alt": 8358,
      "ucker": 8359,
      "▁rot": 8360,
      "▁plat": 8361,
      "▁background": 8362,
      "▁conven": 8363,
      "▁US": 8364,
      "▁anything...": 8365,
      "▁Looking": 8366,
      "▁around...": 8367,
      "▁impl": 8368,
      "▁car!": 8369,
      "▁first?": 8370,
      "ips": 8371,
      "▁bus.": 8372,
      "▁mighty": 8373,
      "▁shower.": 8374,
      "▁raised": 8375,
      "▁adult": 8376,
      "able?": 8377,
      "▁Ambass": 8378,
      "▁pays": 8379,
      "▁yes...": 8380,
      "▁warned": 8381,
      "▁easily": 8382,
      "▁metal": 8383,
      "▁orders.": 8384,
      "▁Arch": 8385,
      "▁Span": 8386,
      "▁trusted": 8387,
      "▁evil.": 8388,
      "▁sympat": 8389,
      "▁ships": 8390,
      "▁dog?": 8391,
      "▁pathetic": 8392,
      "▁millions": 8393,
      "▁door?": 8394,
      "▁feelings.": 8395,
      "▁alone!": 8396,
      "▁behind.": 8397,
      "▁24": 8398,
      "▁takin'": 8399,
      "▁Agnes": 8400,
      "▁office?": 8401,
      "▁basket": 8402,
      "▁Having": 8403,
      "▁satell": 8404,
      "▁remembered": 8405,
      "▁difference?": 8406,
      "▁Norman.": 8407,
      "▁GOD": 8408,
      "▁holes": 8409,
      "▁level.": 8410,
      "▁partners": 8411,
      "▁Laura": 8412,
      "▁Judge": 8413,
      "▁Much": 8414,
      "▁Stephen": 8415,
      "▁pregnant": 8416,
      "▁received": 8417,
      "▁occurred": 8418,
      "▁Congratulations.": 8419,
      "▁vampire": 8420,
      "▁advantage": 8421,
      "▁CIA": 8422,
      "▁financial": 8423,
      "▁Arthur": 8424,
      "-E": 8425,
      "-O": 8426,
      "-...": 8427,
      "1.": 8428,
      "cord": 8429,
      "egr": 8430,
      "les?": 8431,
      "min": 8432,
      "ued": 8433,
      "▁|": 8434,
      "▁tree.": 8435,
      "hett": 8436,
      "is...": 8437,
      "▁foll": 8438,
      "vey": 8439,
      "▁nature.": 8440,
      "omic": 8441,
      "▁hust": 8442,
      "▁hamm": 8443,
      "▁Shan": 8444,
      "lev": 8445,
      "▁Me.": 8446,
      "▁eight.": 8447,
      "▁ear.": 8448,
      "▁earth.": 8449,
      "--!": 8450,
      "▁Boss": 8451,
      "▁Duke": 8452,
      "▁liber": 8453,
      "▁repl": 8454,
      "▁Cad": 8455,
      "ich.": 8456,
      "▁struct": 8457,
      "▁this:": 8458,
      "▁Ly": 8459,
      "▁Liz": 8460,
      "▁Gale": 8461,
      "▁wanta": 8462,
      "▁wants.": 8463,
      "▁P.": 8464,
      "▁Pen": 8465,
      "▁Palm": 8466,
      "urity.": 8467,
      "▁Fle": 8468,
      "▁Fun": 8469,
      "▁Rat": 8470,
      "▁Rang": 8471,
      "▁Eat": 8472,
      "uses": 8473,
      "ulous": 8474,
      "agne": 8475,
      "ump.": 8476,
      "▁exha": 8477,
      "eless": 8478,
      "▁offer.": 8479,
      "▁something!": 8480,
      "▁program.": 8481,
      "▁letter.": 8482,
      "▁queen": 8483,
      "</b>": 8484,
      "rett": 8485,
      "▁unit": 8486,
      "▁poem": 8487,
      "▁court.": 8488,
      "▁China": 8489,
      "▁whist": 8490,
      "▁Alb": 8491,
      "icted": 8492,
      "▁saw.": 8493,
      "▁stops": 8494,
      "▁crazy!": 8495,
      "▁emb": 8496,
      "ia's": 8497,
      "nox": 8498,
      "▁dreamed": 8499,
      "▁twenty-four": 8500,
      "▁facts": 8501,
      "▁humili": 8502,
      "▁possibility": 8503,
      "▁skull": 8504,
      "▁die!": 8505,
      "▁resign": 8506,
      "▁discover": 8507,
      "▁interfe": 8508,
      "▁Many": 8509,
      "▁fallen": 8510,
      "▁regist": 8511,
      "▁Pete": 8512,
      "▁advice.": 8513,
      "▁everyone's": 8514,
      "▁Const": 8515,
      "▁Build": 8516,
      "▁ride?": 8517,
      "▁truth?": 8518,
      "▁cab.": 8519,
      "▁changing": 8520,
      "▁Security": 8521,
      "fully.": 8522,
      "▁50": 8523,
      "▁community": 8524,
      "▁GOT": 8525,
      "▁arranged": 8526,
      "▁song.": 8527,
      "▁Lieutenant.": 8528,
      "▁vacation.": 8529,
      "▁necessary": 8530,
      "▁cocktail": 8531,
      "▁pardon": 8532,
      "▁journal": 8533,
      "▁Relax.": 8534,
      "▁Anth": 8535,
      "▁source": 8536,
      "▁describe": 8537,
      "▁miracle": 8538,
      "▁memories": 8539,
      "▁everywhere.": 8540,
      "▁elevator": 8541,
      "▁circumstances": 8542,
      "▁aboard": 8543,
      "▁tunnel": 8544,
      "▁convinced": 8545,
      "▁Gallag": 8546,
      "▁Ambassad": 8547,
      "cle.": 8548,
      "down": 8549,
      "kk": 8550,
      "rust": 8551,
      "rud": 8552,
      "sit": 8553,
      "▁ing": 8554,
      "hes.": 8555,
      "▁a-": 8556,
      "real": 8557,
      "▁mas": 8558,
      "itched": 8559,
      "erick": 8560,
      "▁cents": 8561,
      "▁gather": 8562,
      "▁lung": 8563,
      "▁inspect": 8564,
      "▁Sau": 8565,
      "▁meal": 8566,
      "▁Mant": 8567,
      "▁Mum": 8568,
      "▁Mm.": 8569,
      "▁Nap": 8570,
      "▁Band": 8571,
      "▁Denn": 8572,
      "▁Cop": 8573,
      "▁Cab": 8574,
      "▁Came": 8575,
      "▁Cait": 8576,
      "ician": 8577,
      "▁steel": 8578,
      "▁washed": 8579,
      "amed": 8580,
      "▁Gree": 8581,
      "▁neut": 8582,
      "▁Roth": 8583,
      "▁It's...": 8584,
      "▁there'll": 8585,
      "ives.": 8586,
      "▁noise": 8587,
      "▁...Y": 8588,
      "astic.": 8589,
      "▁Third": 8590,
      "agger": 8591,
      "▁backward": 8592,
      "▁consequ": 8593,
      "▁something's": 8594,
      "▁calls.": 8595,
      "▁more?": 8596,
      "▁'F": 8597,
      "eopard": 8598,
      "▁little...": 8599,
      "▁Stick": 8600,
      "▁mob": 8601,
      "▁UN": 8602,
      "▁Island": 8603,
      "▁thought...": 8604,
      "▁<u>c": 8605,
      "▁asking.": 8606,
      "▁trying.": 8607,
      "▁arm.": 8608,
      "▁lotta": 8609,
      "▁reality": 8610,
      "▁understanding": 8611,
      "▁understand...": 8612,
      "▁flu": 8613,
      "▁percent.": 8614,
      "aval": 8615,
      "▁place...": 8616,
      "▁rag": 8617,
      "▁left?": 8618,
      "bably.": 8619,
      "▁France": 8620,
      "ired.": 8621,
      "▁brother's": 8622,
      "▁ripped": 8623,
      "▁water?": 8624,
      "▁sign.": 8625,
      "▁frame": 8626,
      "▁honor.": 8627,
      "▁symb": 8628,
      "▁resist": 8629,
      "▁interrupt": 8630,
      "▁film.": 8631,
      "▁Bobby.": 8632,
      "▁Barnes": 8633,
      "▁trouble?": 8634,
      "▁capt": 8635,
      "▁delive": 8636,
      "▁officer.": 8637,
      "▁caught.": 8638,
      "▁'Course": 8639,
      "▁slowly": 8640,
      "▁Warren": 8641,
      "▁-": 8642,
      "▁": 8643,
      "▁Miles": 8644,
      "▁apologize.": 8645,
      "▁pushing": 8646,
      "▁pushed": 8647,
      "▁summer.": 8648,
      "▁managed": 8649,
      "▁neighborhood.": 8650,
      "▁sharp": 8651,
      "▁reminds": 8652,
      "▁Mexico.": 8653,
      "▁guests": 8654,
      "▁midnight": 8655,
      "▁authority": 8656,
      "▁London.": 8657,
      "▁frequ": 8658,
      "▁village": 8659,
      "▁Girl": 8660,
      "▁Dunbar": 8661,
      "▁settled": 8662,
      "▁Morning": 8663,
      "▁Chauncey": 8664,
      "▁valuable": 8665,
      "▁focus": 8666,
      "-D": 8667,
      "-F": 8668,
      "But": 8669,
      "I'm": 8670,
      "TER": 8671,
      "Y!": 8672,
      "ga": 8673,
      "good": 8674,
      "ger.": 8675,
      "hh.": 8676,
      "some": 8677,
      "ww": 8678,
      "wright": 8679,
      "xual": 8680,
      "ye": 8681,
      "▁tu": 8682,
      "▁take.": 8683,
      "▁wolf": 8684,
      "▁san": 8685,
      "▁thee": 8686,
      "▁duck": 8687,
      "▁bread": 8688,
      "erk.": 8689,
      "▁lower": 8690,
      "'sieu": 8691,
      "▁pay.": 8692,
      "▁Told": 8693,
      "▁ok.": 8694,
      "oms": 8695,
      "▁kil": 8696,
      "ass?": 8697,
      "▁east": 8698,
      "oo!": 8699,
      "ril": 8700,
      "▁Bible": 8701,
      "▁Dall": 8702,
      "▁Dool": 8703,
      "▁your...": 8704,
      "▁Over.": 8705,
      "▁jet": 8706,
      "▁what'd": 8707,
      "▁cann": 8708,
      "▁want...": 8709,
      "▁Jeez": 8710,
      "one?": 8711,
      "oney.": 8712,
      "▁soap": 8713,
      "▁EX": 8714,
      "▁shell": 8715,
      "▁plastic": 8716,
      "▁lob": 8717,
      "▁seve": 8718,
      "▁Throw": 8719,
      "▁can't!": 8720,
      "quarter": 8721,
      "▁offense": 8722,
      "▁spot.": 8723,
      "▁downtown": 8724,
      "▁'T": 8725,
      "▁vul": 8726,
      "▁Stra": 8727,
      "▁Vice": 8728,
      "▁ask?": 8729,
      "▁bridge.": 8730,
      "▁carri": 8731,
      "▁remark": 8732,
      "▁drum": 8733,
      "▁Reve": 8734,
      "▁boy's": 8735,
      "▁board.": 8736,
      "▁rooms": 8737,
      "▁shopping": 8738,
      "▁turn.": 8739,
      "▁slipped": 8740,
      "ggin'": 8741,
      "▁position.": 8742,
      "▁comprom": 8743,
      "▁Debb": 8744,
      "▁Orle": 8745,
      "▁Two.": 8746,
      "ugs": 8747,
      "ivin'": 8748,
      "▁Harv": 8749,
      "▁worrying": 8750,
      "▁Lex": 8751,
      "▁awake": 8752,
      "▁human.": 8753,
      "▁chart": 8754,
      "▁husband?": 8755,
      "ensive": 8756,
      "▁filthy": 8757,
      "▁YOU'RE": 8758,
      "▁body?": 8759,
      "▁tests": 8760,
      "▁whatever.": 8761,
      "▁touching": 8762,
      "▁capital": 8763,
      "-what": 8764,
      "▁basement": 8765,
      "▁horse.": 8766,
      "▁range": 8767,
      "▁stopped.": 8768,
      "▁gentlemen.": 8769,
      "▁Dickie": 8770,
      "▁escort": 8771,
      "▁impression": 8772,
      "▁Board": 8773,
      "▁bills": 8774,
      "▁hero.": 8775,
      "▁coward": 8776,
      "▁cigarette": 8777,
      "▁sensitive": 8778,
      "▁exciting": 8779,
      "▁animals.": 8780,
      "▁Washington.": 8781,
      "▁pocket.": 8782,
      "▁constant": 8783,
      "▁Prec": 8784,
      "▁designed": 8785,
      "▁Valent": 8786,
      "▁specific": 8787,
      "▁Cool.": 8788,
      "▁funeral": 8789,
      "▁schedul": 8790,
      "▁Kelly": 8791,
      "▁Luke.": 8792,
      "▁flesh": 8793,
      "▁Mosc": 8794,
      "▁Boston": 8795,
      "▁commercial": 8796,
      "▁oxygen": 8797,
      "▁symbol": 8798,
      "50": 8799,
      "bing": 8800,
      "bag": 8801,
      "cles": 8802,
      "ik.": 8803,
      "mosp": 8804,
      "phy": 8805,
      "▁sink": 8806,
      "▁sau": 8807,
      "▁ded": 8808,
      "▁dull": 8809,
      "▁bump": 8810,
      "▁ce": 8811,
      "▁cy": 8812,
      "▁cem": 8813,
      "is</u>": 8814,
      "▁gate": 8815,
      "▁fran": 8816,
      "▁feder": 8817,
      "▁Wyn": 8818,
      "▁nigger": 8819,
      "▁Aug": 8820,
      "▁Augg": 8821,
      "▁Hospit": 8822,
      "▁we...": 8823,
      "imum": 8824,
      "▁una": 8825,
      "▁Dest": 8826,
      "▁Drew": 8827,
      "▁recept": 8828,
      "▁Cho": 8829,
      "▁City.": 8830,
      "▁stake": 8831,
      "▁star.": 8832,
      "ammit": 8833,
      "▁joy": 8834,
      "▁Heh": 8835,
      "▁abort": 8836,
      "▁Jenny": 8837,
      "race": 8838,
      "▁Pic": 8839,
      "▁Fried": 8840,
      "▁shown": 8841,
      "unt.": 8842,
      "▁Each": 8843,
      "▁deck": 8844,
      "▁debt": 8845,
      "▁alco": 8846,
      "▁...A": 8847,
      "▁seen.": 8848,
      "osh": 8849,
      "umn": 8850,
      "que": 8851,
      "▁good...": 8852,
      "▁agree.": 8853,
      "▁intim": 8854,
      "▁quar": 8855,
      "plet": 8856,
      "▁Now!": 8857,
      "▁Vit": 8858,
      "▁minor": 8859,
      "▁still.": 8860,
      "▁Bever": 8861,
      "▁Intern": 8862,
      "▁cars.": 8863,
      "▁uns": 8864,
      "▁sweep": 8865,
      "▁hand?": 8866,
      "▁helluva": 8867,
      "▁Rex": 8868,
      "▁everything?": 8869,
      "▁actual": 8870,
      "▁Marge": 8871,
      "▁minds": 8872,
      "▁Johnnie": 8873,
      "▁course!": 8874,
      "▁surg": 8875,
      "▁repair": 8876,
      "▁13": 8877,
      "▁fourth": 8878,
      "▁sounded": 8879,
      "▁least.": 8880,
      "▁cases": 8881,
      "▁trust.": 8882,
      "▁evidence.": 8883,
      "▁case?": 8884,
      "▁high.": 8885,
      "otted": 8886,
      "ological": 8887,
      "▁considering": 8888,
      "▁Frankie": 8889,
      "▁ago...": 8890,
      "▁terrible.": 8891,
      "▁dollars?": 8892,
      "▁foolish": 8893,
      "▁laund": 8894,
      "▁report.": 8895,
      "▁game?": 8896,
      "▁colored": 8897,
      "▁Damn.": 8898,
      "▁Beaum": 8899,
      "▁Alex.": 8900,
      "ium.": 8901,
      "ENT": 8902,
      "▁impressed": 8903,
      "ronic": 8904,
      "▁Somebody's": 8905,
      "▁tempt": 8906,
      "▁field.": 8907,
      "▁breast": 8908,
      "▁Jews": 8909,
      "▁Chief.": 8910,
      "▁Depend": 8911,
      "-hand": 8912,
      "▁teeth.": 8913,
      "▁policy": 8914,
      "▁Miller": 8915,
      "▁panic": 8916,
      "▁California.": 8917,
      "▁ignore": 8918,
      "▁origin": 8919,
      "▁Used": 8920,
      "▁successful": 8921,
      "▁intelligence": 8922,
      "▁since.": 8923,
      "▁Lisa": 8924,
      "▁indeed.": 8925,
      "▁robbed": 8926,
      "▁Terrif": 8927,
      "IGHT": 8928,
      "▁horror": 8929,
      "▁philosop": 8930,
      "▁cripp": 8931,
      "▁DAY.": 8932,
      "▁Ethan": 8933,
      "▁exhaust": 8934,
      "▁Reverend": 8935,
      "8.": 8936,
      "ALL": 8937,
      "ias": 8938,
      "iar.": 8939,
      "iant.": 8940,
      "rade": 8941,
      "vis.": 8942,
      "d": 8943,
      "▁tank": 8944,
      "rell": 8945,
      "▁sad.": 8946,
      "onn": 8947,
      "▁der": 8948,
      "▁dim": 8949,
      "▁dude.": 8950,
      "itect": 8951,
      "ery.": 8952,
      "▁less.": 8953,
      "oth.": 8954,
      "etch": 8955,
      "omp": 8956,
      "▁thick": 8957,
      "▁he...": 8958,
      "▁heh.": 8959,
      "stery": 8960,
      "rick.": 8961,
      "▁Balt": 8962,
      "▁forb": 8963,
      "▁Di": 8964,
      "▁know--": 8965,
      "▁Cook": 8966,
      "▁Catch": 8967,
      "ellow": 8968,
      "am?": 8969,
      "▁my...": 8970,
      "ee?": 8971,
      "▁jun": 8972,
      "▁with...": 8973,
      "▁It'd": 8974,
      "▁Linc": 8975,
      "eared.": 8976,
      "▁Jones": 8977,
      "▁Pant": 8978,
      "urch.": 8979,
      "▁thinking?": 8980,
      "▁atmosp": 8981,
      "▁alien": 8982,
      "▁row": 8983,
      "▁rang": 8984,
      "▁rotten": 8985,
      "▁plate": 8986,
      "▁lose.": 8987,
      "ements": 8988,
      "▁How're": 8989,
      "▁his.": 8990,
      "▁comed": 8991,
      "▁agent.": 8992,
      "▁Kong": 8993,
      "▁Kling": 8994,
      "▁happy?": 8995,
      "▁There.": 8996,
      "▁Viv": 8997,
      "▁rock.": 8998,
      "▁anything!": 8999,
      "▁<u>H": 9000,
      "▁<u>not": 9001,
      "▁asked.": 9002,
      "▁kids?": 9003,
      "▁parties": 9004,
      "▁girl...": 9005,
      "▁Whenever": 9006,
      "▁marvel": 9007,
      "▁wouldn't.": 9008,
      "▁owned": 9009,
      "▁secure": 9010,
      "▁perha": 9011,
      "▁stays": 9012,
      "!!!!": 9013,
      "▁home!": 9014,
      "▁home...": 9015,
      "ved.": 9016,
      "▁Somehow": 9017,
      "▁later?": 9018,
      "▁tried.": 9019,
      "▁tricks": 9020,
      "▁desk.": 9021,
      "▁Dad!": 9022,
      "▁Unfortun": 9023,
      "▁laws": 9024,
      "▁Blood": 9025,
      "▁chose": 9026,
      "▁fellas": 9027,
      "▁Bill?": 9028,
      "▁messed": 9029,
      "▁lately": 9030,
      "-bl": 9031,
      "▁studio": 9032,
      "▁seriously.": 9033,
      "▁Truth": 9034,
      "▁ball.": 9035,
      "▁paranoid": 9036,
      "▁winter": 9037,
      "▁owes": 9038,
      "▁stopping": 9039,
      "▁Nicky": 9040,
      "▁curse": 9041,
      "▁Freddy": 9042,
      "▁196": 9043,
      "▁Coff": 9044,
      "▁destroyed": 9045,
      "-thirty": 9046,
      "▁Senate": 9047,
      "▁earn": 9048,
      "▁threaten": 9049,
      "▁failure": 9050,
      "▁photograp": 9051,
      "▁broken.": 9052,
      "▁places.": 9053,
      "▁campaign": 9054,
      "▁investigation": 9055,
      "▁iron": 9056,
      "▁labor": 9057,
      "▁virus": 9058,
      "▁establ": 9059,
      "▁Price": 9060,
      "▁dumped": 9061,
      "▁opinion.": 9062,
      "▁yellow": 9063,
      "▁suffering": 9064,
      "▁Sunday.": 9065,
      "▁Roman": 9066,
      "▁throat.": 9067,
      "▁nowhere.": 9068,
      "▁title": 9069,
      "▁etern": 9070,
      "▁Knock": 9071,
      "▁Couple": 9072,
      "▁miserable": 9073,
      "▁wreck": 9074,
      "▁Miami": 9075,
      "▁Pearl": 9076,
      "▁Japanese": 9077,
      "▁complex": 9078,
      "▁Gentlemen": 9079,
      "▁McMur": 9080,
      "▁Arnold": 9081,
      "▁Lincol": 9082,
      "E!": 9083,
      "F.": 9084,
      "HER": 9085,
      "IL": 9086,
      "ghed": 9087,
      "kov": 9088,
      "po": 9089,
      "ues.": 9090,
      "van": 9091,
      "▁ach": 9092,
      "▁average": 9093,
      "▁west": 9094,
      "▁whi": 9095,
      "▁sid": 9096,
      "▁dating": 9097,
      "▁dinos": 9098,
      "▁bi": 9099,
      "▁top.": 9100,
      "▁came.": 9101,
      "▁gift.": 9102,
      "▁fo": 9103,
      "▁fuel": 9104,
      "▁Word": 9105,
      "vell": 9106,
      "oted": 9107,
      "▁pink": 9108,
      "▁Tal": 9109,
      "▁Took": 9110,
      "▁those.": 9111,
      "▁heck": 9112,
      "▁inch": 9113,
      "▁has.": 9114,
      "▁HERE": 9115,
      "▁Malk": 9116,
      "--we": 9117,
      "secut": 9118,
      "▁Bond": 9119,
      "▁forces": 9120,
      "▁stall": 9121,
      "▁stamp": 9122,
      "▁note.": 9123,
      "eeze": 9124,
      "▁Lay": 9125,
      "▁cancer": 9126,
      "▁Full": 9127,
      "▁did!": 9128,
      "▁did...": 9129,
      "▁Epp": 9130,
      "uls": 9131,
      "▁comes.": 9132,
      "umps": 9133,
      "▁Dog": 9134,
      "▁Doll": 9135,
      "▁how?": 9136,
      "▁however": 9137,
      "▁Kans": 9138,
      "▁Kane.": 9139,
      "▁happiness": 9140,
      "▁'N": 9141,
      "▁it?!": 9142,
      "plom": 9143,
      "▁year?": 9144,
      "▁belie": 9145,
      "▁<u>b": 9146,
      "▁before...": 9147,
      "▁Inter": 9148,
      "ized.": 9149,
      "▁kid's": 9150,
      "▁carefully": 9151,
      "▁Good-": 9152,
      "▁Joanna": 9153,
      "▁Reyn": 9154,
      "▁head?": 9155,
      "▁'em!": 9156,
      "▁Somewhere": 9157,
      "▁trial.": 9158,
      "▁couldn't.": 9159,
      "▁repor": 9160,
      "▁11": 9161,
      "▁next?": 9162,
      "▁emot": 9163,
      "▁interests": 9164,
      "onscious": 9165,
      "▁rip": 9166,
      "▁week?": 9167,
      "▁son-of-a": 9168,
      "▁shots": 9169,
      "▁senior": 9170,
      "▁Leg": 9171,
      "▁humor": 9172,
      "-time": 9173,
      "▁confirm": 9174,
      "▁Ma'": 9175,
      "hhhh": 9176,
      "▁Manhatt": 9177,
      "▁falls": 9178,
      "bbed": 9179,
      "▁police?": 9180,
      "▁incre": 9181,
      "▁vision": 9182,
      "▁leader": 9183,
      "▁made.": 9184,
      "▁McG": 9185,
      "▁bags": 9186,
      "▁Shaw": 9187,
      "▁kissed": 9188,
      "▁condition.": 9189,
      "▁stories.": 9190,
      "???": 9191,
      "▁Ellie": 9192,
      "▁corner.": 9193,
      "▁threatened": 9194,
      "▁modern": 9195,
      "▁veget": 9196,
      "▁glasses": 9197,
      "▁torped": 9198,
      "▁enemies": 9199,
      "▁Friday.": 9200,
      "▁particularly": 9201,
      "▁details.": 9202,
      "▁performance": 9203,
      "▁Casabl": 9204,
      "▁swimming": 9205,
      "▁Lois": 9206,
      "▁punish": 9207,
      "▁Germans": 9208,
      "▁Vegas.": 9209,
      "▁Superman": 9210,
      "▁possession": 9211,
      "▁remains": 9212,
      "▁crawling": 9213,
      "▁Ninotch": 9214,
      "▁games.": 9215,
      "▁permission": 9216,
      "▁Saav": 9217,
      "▁Devil": 9218,
      "▁railroad": 9219,
      "▁frankly": 9220,
      "▁stretch": 9221,
      "▁anxious": 9222,
      "ropriate": 9223,
      "▁uncomfort": 9224,
      "▁federal": 9225,
      "▁Beverly": 9226,
      "▁Malkov": 9227,
      "▁Casablanc": 9228,
      "&quot;": 9229,
      "-uh.": 9230,
      "SH": 9231,
      "bs.": 9232,
      "cast": 9233,
      "go.": 9234,
      "mph": 9235,
      "ras": 9236,
      "sis": 9237,
      "▁ward": 9238,
      "▁won.": 9239,
      "hab": 9240,
      "▁bone": 9241,
      "▁bones": 9242,
      "▁fry": 9243,
      "▁fate": 9244,
      "▁fond": 9245,
      "▁furn": 9246,
      "▁les": 9247,
      "▁lemme": 9248,
      "▁puss": 9249,
      "▁Tru": 9250,
      "▁its": 9251,
      "▁hit.": 9252,
      "▁inse": 9253,
      "▁Add": 9254,
      "▁HER": 9255,
      "see": 9256,
      "▁Ball": 9257,
      "ades": 9258,
      "▁redu": 9259,
      "▁Cross": 9260,
      "iced": 9261,
      "▁stress": 9262,
      "amin": 9263,
      "▁withd": 9264,
      "▁Lock": 9265,
      "cho": 9266,
      "▁Go.": 9267,
      "▁Ja": 9268,
      "rake": 9269,
      "▁Pot": 9270,
      "pping.": 9271,
      "▁Rud": 9272,
      "▁sore": 9273,
      "▁suits": 9274,
      "▁many?": 9275,
      "▁guards": 9276,
      "ulf": 9277,
      "▁use.": 9278,
      "▁themselves.": 9279,
      "▁She'd": 9280,
      "▁spect": 9281,
      "▁proceed": 9282,
      "▁Ke": 9283,
      "▁Ken": 9284,
      "▁King.": 9285,
      "▁everyone.": 9286,
      "▁Don't.": 9287,
      "▁envelop": 9288,
      "▁helps": 9289,
      "▁Look...": 9290,
      "▁image": 9291,
      "▁handled": 9292,
      "▁flash": 9293,
      "▁player": 9294,
      "▁money's": 9295,
      "▁Go!": 9296,
      "▁shop.": 9297,
      "▁adop": 9298,
      "▁sham": 9299,
      "▁glove": 9300,
      "▁count.": 9301,
      "▁Christian": 9302,
      "▁method": 9303,
      "▁price.": 9304,
      "▁relieve": 9305,
      "▁Sean": 9306,
      "▁awful.": 9307,
      "▁signature": 9308,
      "▁reasons.": 9309,
      "▁Tommy.": 9310,
      "▁giant": 9311,
      "▁began": 9312,
      "▁broke.": 9313,
      "otton": 9314,
      "▁charges": 9315,
      "▁instant": 9316,
      "▁learn.": 9317,
      "▁Americans": 9318,
      "▁presence": 9319,
      "▁husband's": 9320,
      "▁bodygu": 9321,
      "▁concert": 9322,
      "▁Guard": 9323,
      "▁test.": 9324,
      "▁Ah!": 9325,
      "▁advise": 9326,
      "▁daddy.": 9327,
      "▁closing": 9328,
      "▁danger.": 9329,
      "▁independ": 9330,
      "▁reports": 9331,
      "▁Swed": 9332,
      "▁goin'?": 9333,
      "▁systems": 9334,
      "▁returned": 9335,
      "itches": 9336,
      "▁honestly": 9337,
      "board.": 9338,
      "▁tickets": 9339,
[...]
